{
  "version": "1.0",
  "truncation": null,
  "padding": null,
  "added_tokens": [
    {
      "id": 0,
      "content": "<pad>",
      "single_word": false,
      "lstrip": false,
      "rstrip": false,
      "normalized": false,
      "special": true
    },
    {
      "id": 1,
      "content": "<bos>",
      "single_word": false,
      "lstrip": false,
      "rstrip": false,
      "normalized": false,
      "special": true
    },
    {
      "id": 2,
      "content": "<eos>",
      "single_word": false,
      "lstrip": false,
      "rstrip": false,
      "normalized": false,
      "special": true
    },
    {
      "id": 3,
      "content": "<unk>",
      "single_word": false,
      "lstrip": false,
      "rstrip": false,
      "normalized": false,
      "special": true
    },
    {
      "id": 4,
      "content": "<question>",
      "single_word": false,
      "lstrip": false,
      "rstrip": false,
      "normalized": false,
      "special": true
    },
    {
      "id": 5,
      "content": "</question>",
      "single_word": false,
      "lstrip": false,
      "rstrip": false,
      "normalized": false,
      "special": true
    },
    {
      "id": 6,
      "content": "<answer>",
      "single_word": false,
      "lstrip": false,
      "rstrip": false,
      "normalized": false,
      "special": true
    },
    {
      "id": 7,
      "content": "</answer>",
      "single_word": false,
      "lstrip": false,
      "rstrip": false,
      "normalized": false,
      "special": true
    }
  ],
  "normalizer": null,
  "pre_tokenizer": {
    "type": "Whitespace"
  },
  "post_processor": {
    "type": "TemplateProcessing",
    "single": [
      {
        "SpecialToken": {
          "id": "<bos>",
          "type_id": 0
        }
      },
      {
        "Sequence": {
          "id": "A",
          "type_id": 0
        }
      },
      {
        "SpecialToken": {
          "id": "<eos>",
          "type_id": 0
        }
      }
    ],
    "pair": [
      {
        "Sequence": {
          "id": "A",
          "type_id": 0
        }
      },
      {
        "Sequence": {
          "id": "B",
          "type_id": 1
        }
      }
    ],
    "special_tokens": {
      "<bos>": {
        "id": "<bos>",
        "ids": [
          1
        ],
        "tokens": [
          "<bos>"
        ]
      },
      "<eos>": {
        "id": "<eos>",
        "ids": [
          2
        ],
        "tokens": [
          "<eos>"
        ]
      }
    }
  },
  "decoder": null,
  "model": {
    "type": "BPE",
    "dropout": null,
    "unk_token": "<unk>",
    "continuing_subword_prefix": null,
    "end_of_word_suffix": null,
    "fuse_unk": false,
    "byte_fallback": false,
    "ignore_merges": false,
    "vocab": {
      "<pad>": 0,
      "<bos>": 1,
      "<eos>": 2,
      "<unk>": 3,
      "<question>": 4,
      "</question>": 5,
      "<answer>": 6,
      "</answer>": 7,
      "\u0001": 8,
      "\u0002": 9,
      "\u0003": 10,
      "\u0005": 11,
      "\u0007": 12,
      "\u0017": 13,
      "!": 14,
      "\"": 15,
      "#": 16,
      "$": 17,
      "%": 18,
      "&": 19,
      "'": 20,
      "(": 21,
      ")": 22,
      "*": 23,
      "+": 24,
      ",": 25,
      "-": 26,
      ".": 27,
      "/": 28,
      "0": 29,
      "1": 30,
      "2": 31,
      "3": 32,
      "4": 33,
      "5": 34,
      "6": 35,
      "7": 36,
      "8": 37,
      "9": 38,
      ":": 39,
      ";": 40,
      "<": 41,
      "=": 42,
      ">": 43,
      "?": 44,
      "@": 45,
      "A": 46,
      "B": 47,
      "C": 48,
      "D": 49,
      "E": 50,
      "F": 51,
      "G": 52,
      "H": 53,
      "I": 54,
      "J": 55,
      "K": 56,
      "L": 57,
      "M": 58,
      "N": 59,
      "O": 60,
      "P": 61,
      "Q": 62,
      "R": 63,
      "S": 64,
      "T": 65,
      "U": 66,
      "V": 67,
      "W": 68,
      "X": 69,
      "Y": 70,
      "Z": 71,
      "[": 72,
      "\\": 73,
      "]": 74,
      "^": 75,
      "_": 76,
      "`": 77,
      "a": 78,
      "b": 79,
      "c": 80,
      "d": 81,
      "e": 82,
      "f": 83,
      "g": 84,
      "h": 85,
      "i": 86,
      "j": 87,
      "k": 88,
      "l": 89,
      "m": 90,
      "n": 91,
      "o": 92,
      "p": 93,
      "q": 94,
      "r": 95,
      "s": 96,
      "t": 97,
      "u": 98,
      "v": 99,
      "w": 100,
      "x": 101,
      "y": 102,
      "z": 103,
      "{": 104,
      "|": 105,
      "}": 106,
      "~": 107,
      "": 108,
      "¡": 109,
      "£": 110,
      "§": 111,
      "«": 112,
      "¬": 113,
      "­": 114,
      "®": 115,
      "°": 116,
      "±": 117,
      "²": 118,
      "³": 119,
      "µ": 120,
      "·": 121,
      "º": 122,
      "»": 123,
      "¼": 124,
      "½": 125,
      "¾": 126,
      "×": 127,
      "ß": 128,
      "à": 129,
      "á": 130,
      "â": 131,
      "ä": 132,
      "ç": 133,
      "è": 134,
      "é": 135,
      "ê": 136,
      "ì": 137,
      "ï": 138,
      "ö": 139,
      "÷": 140,
      "ü": 141,
      "ÿ": 142,
      "ŋ": 143,
      "Ƴ": 144,
      "ɑ": 145,
      "ɣ": 146,
      "˚": 147,
      "ͦ": 148,
      "Α": 149,
      "Β": 150,
      "Δ": 151,
      "Ω": 152,
      "α": 153,
      "β": 154,
      "γ": 155,
      "δ": 156,
      "ε": 157,
      "η": 158,
      "θ": 159,
      "κ": 160,
      "μ": 161,
      "π": 162,
      "ρ": 163,
      "σ": 164,
      "ω": 165,
      "Ѕ": 166,
      "А": 167,
      "И": 168,
      "Н": 169,
      "О": 170,
      "Т": 171,
      "а": 172,
      "е": 173,
      "р": 174,
      "с": 175,
      "у": 176,
      "х": 177,
      "ѕ": 178,
      "і": 179,
      "ј": 180,
      "َ": 181,
      "ِ": 182,
      "​": 183,
      "‐": 184,
      "‑": 185,
      "‒": 186,
      "–": 187,
      "—": 188,
      "―": 189,
      "‖": 190,
      "‘": 191,
      "’": 192,
      "“": 193,
      "”": 194,
      "„": 195,
      "•": 196,
      "…": 197,
      "′": 198,
      "›": 199,
      "‾": 200,
      "⁄": 201,
      "℃": 202,
      "℅": 203,
      "℉": 204,
      "Ω": 205,
      "⅓": 206,
      "⅔": 207,
      "⅗": 208,
      "⅘": 209,
      "⅙": 210,
      "↑": 211,
      "→": 212,
      "↓": 213,
      "↔": 214,
      "↵": 215,
      "⇒": 216,
      "⇾": 217,
      "∑": 218,
      "−": 219,
      "∙": 220,
      "√": 221,
      "∝": 222,
      "∞": 223,
      "∴": 224,
      "∼": 225,
      "≈": 226,
      "≤": 227,
      "≥": 228,
      "⍺": 229,
      "─": 230,
      "■": 231,
      "□": 232,
      "►": 233,
      "◆": 234,
      "●": 235,
      "◦": 236,
      "☆": 237,
      "♦": 238,
      "✕": 239,
      "❑": 240,
      "❖": 241,
      "⩾": 242,
      "": 243,
      "": 244,
      "": 245,
      "": 246,
      "ﬀ": 247,
      "ﬁ": 248,
      "ﬂ": 249,
      "ﬃ": 250,
      "﻿": 251,
      "＜": 252,
      "in": 253,
      "er": 254,
      "on": 255,
      "an": 256,
      "ti": 257,
      "th": 258,
      "es": 259,
      "is": 260,
      "re": 261,
      "al": 262,
      "en": 263,
      "or": 264,
      "tion": 265,
      "of": 266,
      "the": 267,
      "ar": 268,
      "at": 269,
      "ed": 270,
      "as": 271,
      "ans": 272,
      "wer": 273,
      "ic": 274,
      "answer": 275,
      "ro": 276,
      "he": 277,
      "qu": 278,
      "to": 279,
      "and": 280,
      "ing": 281,
      "us": 282,
      "ct": 283,
      "ques": 284,
      "le": 285,
      "question": 286,
      "</": 287,
      "os": 288,
      "ent": 289,
      "ol": 290,
      "ul": 291,
      "om": 292,
      "it": 293,
      "The": 294,
      "ac": 295,
      "ve": 296,
      "ation": 297,
      "ur": 298,
      "id": 299,
      "lo": 300,
      "ly": 301,
      "tr": 302,
      "ce": 303,
      "ch": 304,
      "di": 305,
      "cor": 306,
      "ph": 307,
      "ter": 308,
      "de": 309,
      "ag": 310,
      "il": 311,
      "rect": 312,
      "um": 313,
      "am": 314,
      "se": 315,
      "be": 316,
      "correct": 317,
      "un": 318,
      "ith": 319,
      "are": 320,
      "res": 321,
      "with": 322,
      "for": 323,
      "te": 324,
      "ab": 325,
      "oc": 326,
      "pa": 327,
      "li": 328,
      "per": 329,
      "con": 330,
      "pro": 331,
      "tic": 332,
      "me": 333,
      "fe": 334,
      "si": 335,
      "ine": 336,
      "com": 337,
      "ia": 338,
      "no": 339,
      "ir": 340,
      "ex": 341,
      "ll": 342,
      "st": 343,
      "ad": 344,
      "su": 345,
      "ma": 346,
      "ate": 347,
      "ap": 348,
      "ne": 349,
      "ut": 350,
      "ver": 351,
      "ase": 352,
      "od": 353,
      "by": 354,
      "pe": 355,
      "ig": 356,
      "dis": 357,
      "im": 358,
      "low": 359,
      "ment": 360,
      "wh": 361,
      "uc": 362,
      "ich": 363,
      "mon": 364,
      "mo": 365,
      "pl": 366,
      "ys": 367,
      "act": 368,
      "ef": 369,
      "In": 370,
      "ated": 371,
      "ical": 372,
      "mal": 373,
      "tive": 374,
      "est": 375,
      "gen": 376,
      "ure": 377,
      "ost": 378,
      "An": 379,
      "ca": 380,
      "ary": 381,
      "cre": 382,
      "cl": 383,
      "sy": 384,
      "rom": 385,
      "pres": 386,
      "po": 387,
      "co": 388,
      "ra": 389,
      "hy": 390,
      "ther": 391,
      "age": 392,
      "tis": 393,
      "ity": 394,
      "one": 395,
      "ho": 396,
      "fol": 397,
      "ion": 398,
      "we": 399,
      "ant": 400,
      "ess": 401,
      "ular": 402,
      "caus": 403,
      "cy": 404,
      "ous": 405,
      "ib": 406,
      "follow": 407,
      "osis": 408,
      "ial": 409,
      "der": 410,
      "can": 411,
      "ug": 412,
      "all": 413,
      "cell": 414,
      "ye": 415,
      "ction": 416,
      "pati": 417,
      "not": 418,
      "following": 419,
      "ten": 420,
      "em": 421,
      "ain": 422,
      "igh": 423,
      "that": 424,
      "og": 425,
      "which": 426,
      "pre": 427,
      "pt": 428,
      "patient": 429,
      "bo": 430,
      "Th": 431,
      "ty": 432,
      "from": 433,
      "fic": 434,
      "ke": 435,
      "ue": 436,
      "ast": 437,
      "pos": 438,
      "most": 439,
      "so": 440,
      "ass": 441,
      "':": 442,
      "med": 443,
      "Wh": 444,
      "ist": 445,
      "Ans": 446,
      "ple": 447,
      "ory": 448,
      "ill": 449,
      "dro": 450,
      "car": 451,
      "Ref": 452,
      "ri": 453,
      "ence": 454,
      "fer": 455,
      "ge": 456,
      "up": 457,
      "ha": 458,
      "min": 459,
      "ep": 460,
      "dise": 461,
      "sho": 462,
      "br": 463,
      "ren": 464,
      "cur": 465,
      "iz": 466,
      "ater": 467,
      "It": 468,
      "par": 469,
      "op": 470,
      "has": 471,
      "ins": 472,
      "ci": 473,
      "cer": 474,
      "common": 475,
      "ide": 476,
      "ally": 477,
      "gn": 478,
      "end": 479,
      "creas": 480,
      "ior": 481,
      "blo": 482,
      "',": 483,
      "year": 484,
      "und": 485,
      "ind": 486,
      "disease": 487,
      "syn": 488,
      "af": 489,
      "str": 490,
      "ts": 491,
      "00": 492,
      "sion": 493,
      "out": 494,
      "ition": 495,
      "amin": 496,
      "red": 497,
      "cause": 498,
      "inal": 499,
      ").": 500,
      "tom": 501,
      "ven": 502,
      "may": 503,
      "ub": 504,
      "fect": 505,
      "cept": 506,
      "man": 507,
      "ob": 508,
      "tre": 509,
      "ves": 510,
      "ay": 511,
      "ner": 512,
      "ormal": 513,
      "ong": 514,
      "present": 515,
      "dr": 516,
      "fl": 517,
      "olog": 518,
      "oma": 519,
      "Which": 520,
      "form": 521,
      "ors": 522,
      ".,": 523,
      "anti": 524,
      "cells": 525,
      "ud": 526,
      "ace": 527,
      "gl": 528,
      "thy": 529,
      "test": 530,
      "agn": 531,
      "ang": 532,
      "ations": 533,
      "pr": 534,
      "used": 535,
      "fo": 536,
      "normal": 537,
      "ose": 538,
      "blood": 539,
      "ight": 540,
      "trans": 541,
      "cont": 542,
      "old": 543,
      "acter": 544,
      "drome": 545,
      "seen": 546,
      "ox": 547,
      "able": 548,
      "tem": 549,
      "mus": 550,
      "tal": 551,
      "ome": 552,
      "vol": 553,
      "ance": 554,
      "sp": 555,
      "cal": 556,
      "ugh": 557,
      "val": 558,
      "10": 559,
      "this": 560,
      "ach": 561,
      "oid": 562,
      "ta": 563,
      "ild": 564,
      "phy": 565,
      "el": 566,
      "cle": 567,
      "sur": 568,
      "cin": 569,
      "col": 570,
      "oci": 571,
      "syndrome": 572,
      "ative": 573,
      "creased": 574,
      "Ch": 575,
      "do": 576,
      "bi": 577,
      "ane": 578,
      "ery": 579,
      "occur": 580,
      "ism": 581,
      "cent": 582,
      "her": 583,
      "like": 584,
      "action": 585,
      "if": 586,
      "tiv": 587,
      "les": 588,
      "20": 589,
      "but": 590,
      "terior": 591,
      "ris": 592,
      "itis": 593,
      "inter": 594,
      "ute": 595,
      "),": 596,
      "have": 597,
      "atment": 598,
      "thes": 599,
      "He": 600,
      "also": 601,
      "prote": 602,
      "ros": 603,
      "wo": 604,
      "diagn": 605,
      "uct": 606,
      "wn": 607,
      "mp": 608,
      "acid": 609,
      "other": 610,
      "infe": 611,
      "pul": 612,
      "ari": 613,
      "lop": 614,
      "ron": 615,
      "resp": 616,
      "plas": 617,
      "ures": 618,
      "uld": 619,
      "ere": 620,
      "ates": 621,
      "cul": 622,
      "dition": 623,
      "its": 624,
      "associ": 625,
      "ks": 626,
      "hem": 627,
      "ble": 628,
      "tra": 629,
      "ard": 630,
      "ers": 631,
      "hyper": 632,
      "due": 633,
      "tes": 634,
      "duc": 635,
      "por": 636,
      "ite": 637,
      "ual": 638,
      "ases": 639,
      "than": 640,
      "edition": 641,
      "reg": 642,
      "cr": 643,
      "nerve": 644,
      "char": 645,
      "ocy": 646,
      "ung": 647,
      "Re": 648,
      "ser": 649,
      "ved": 650,
      "ot": 651,
      "atory": 652,
      "after": 653,
      "tum": 654,
      "vel": 655,
      "order": 656,
      "sign": 657,
      "mph": 658,
      "except": 659,
      "incl": 660,
      "ital": 661,
      "drug": 662,
      "infection": 663,
      "sub": 664,
      "velop": 665,
      "vi": 666,
      "show": 667,
      "vir": 668,
      "ric": 669,
      "gi": 670,
      "yl": 671,
      "kin": 672,
      "patients": 673,
      "associated": 674,
      "more": 675,
      "gro": 676,
      "enti": 677,
      "dif": 678,
      "child": 679,
      "oph": 680,
      "ies": 681,
      "Hy": 682,
      "All": 683,
      "NA": 684,
      "ck": 685,
      "ness": 686,
      "sive": 687,
      "ays": 688,
      "ology": 689,
      "pain": 690,
      "mun": 691,
      "dom": 692,
      "sh": 693,
      "int": 694,
      "ath": 695,
      "ody": 696,
      "II": 697,
      "develop": 698,
      "ateral": 699,
      "ens": 700,
      "mul": 701,
      "--": 702,
      "This": 703,
      "bl": 704,
      "into": 705,
      "ually": 706,
      "gr": 707,
      "level": 708,
      "cular": 709,
      "his": 710,
      "was": 711,
      "12": 712,
      "hib": 713,
      "ature": 714,
      "invol": 715,
      "use": 716,
      "vas": 717,
      "ized": 718,
      "resul": 719,
      "ft": 720,
      "vent": 721,
      "mic": 722,
      "cess": 723,
      "treatment": 724,
      "et": 725,
      "thro": 726,
      "iti": 727,
      "ax": 728,
      "sure": 729,
      "requ": 730,
      "cons": 731,
      "nal": 732,
      "ile": 733,
      "vis": 734,
      "vid": 735,
      "pol": 736,
      "cho": 737,
      "abs": 738,
      "dia": 739,
      "fr": 740,
      "mar": 741,
      "ating": 742,
      "peri": 743,
      "high": 744,
      "spe": 745,
      "uring": 746,
      "ctive": 747,
      "body": 748,
      "type": 749,
      "des": 750,
      "ency": 751,
      "ice": 752,
      "Pro": 753,
      "flu": 754,
      "emia": 755,
      "amination": 756,
      "fib": 757,
      "diagnosis": 758,
      "unction": 759,
      "rel": 760,
      "tos": 761,
      "ign": 762,
      "ail": 763,
      "path": 764,
      "about": 765,
      "years": 766,
      "ting": 767,
      "over": 768,
      "fir": 769,
      "ret": 770,
      "chan": 771,
      "cond": 772,
      "met": 773,
      "ted": 774,
      "mptom": 775,
      "oss": 776,
      "mia": 777,
      "month": 778,
      "ium": 779,
      "lin": 780,
      "activ": 781,
      "De": 782,
      "Ex": 783,
      "contr": 784,
      "ces": 785,
      "wee": 786,
      "Con": 787,
      "ak": 788,
      "Al": 789,
      "lymph": 790,
      "sever": 791,
      "fici": 792,
      "liver": 793,
      "fact": 794,
      "ions": 795,
      "pressure": 796,
      "enz": 797,
      "ip": 798,
      "appe": 799,
      "mm": 800,
      "apy": 801,
      "character": 802,
      "mem": 803,
      "inj": 804,
      "our": 805,
      "bre": 806,
      "likely": 807,
      "ber": 808,
      "Ne": 809,
      "usually": 810,
      "Tr": 811,
      "mes": 812,
      "long": 813,
      "hypo": 814,
      "should": 815,
      "ack": 816,
      "tissu": 817,
      "ati": 818,
      "ents": 819,
      "ral": 820,
      "son": 821,
      "osph": 822,
      "produc": 823,
      "sup": 824,
      "sti": 825,
      "ening": 826,
      "lar": 827,
      "pal": 828,
      "bet": 829,
      "inhib": 830,
      "Most": 831,
      "lig": 832,
      "ame": 833,
      "when": 834,
      "bil": 835,
      "protein": 836,
      "roid": 837,
      "uro": 838,
      "ancy": 839,
      "symptom": 840,
      "respon": 841,
      "ele": 842,
      "less": 843,
      "appear": 844,
      "tric": 845,
      "ree": 846,
      "ear": 847,
      "org": 848,
      "inf": 849,
      "hea": 850,
      "bin": 851,
      "rate": 852,
      "15": 853,
      "muscle": 854,
      "ude": 855,
      "examination": 856,
      "eral": 857,
      "itive": 858,
      "radi": 859,
      "dies": 860,
      "tomy": 861,
      "sys": 862,
      "disorder": 863,
      "ps": 864,
      "effect": 865,
      "non": 866,
      "hist": 867,
      "ok": 868,
      "mit": 869,
      "shows": 870,
      "ogen": 871,
      "because": 872,
      "ysis": 873,
      "been": 874,
      "comple": 875,
      "crease": 876,
      "mall": 877,
      "usion": 878,
      "during": 879,
      "immun": 880,
      "left": 881,
      "cinoma": 882,
      "mg": 883,
      "ween": 884,
      "ucle": 885,
      "pg": 886,
      "occurs": 887,
      "right": 888,
      "cap": 889,
      "renal": 890,
      "tox": 891,
      "ian": 892,
      "there": 893,
      "vari": 894,
      "condition": 895,
      "loc": 896,
      "ically": 897,
      "increased": 898,
      "ronic": 899,
      "under": 900,
      "between": 901,
      "ardi": 902,
      "causes": 903,
      "atic": 904,
      "kno": 905,
      "only": 906,
      "ption": 907,
      "lead": 908,
      "typ": 909,
      "function": 910,
      "call": 911,
      "Se": 912,
      "30": 913,
      "ise": 914,
      "sin": 915,
      "symptoms": 916,
      "plic": 917,
      "therapy": 918,
      "prim": 919,
      "ste": 920,
      "cop": 921,
      "unt": 922,
      "abdom": 923,
      "duct": 924,
      "will": 925,
      "ove": 926,
      "ick": 927,
      "well": 928,
      "presents": 929,
      "lex": 930,
      "ving": 931,
      "days": 932,
      "ds": 933,
      "Ac": 934,
      "asis": 935,
      "50": 936,
      "months": 937,
      "wom": 938,
      "pregn": 939,
      "first": 940,
      "history": 941,
      ":-": 942,
      "Ph": 943,
      "Med": 944,
      "ficiency": 945,
      "two": 946,
      "phosph": 947,
      "acute": 948,
      "monary": 949,
      "fi": 950,
      "orr": 951,
      "skin": 952,
      "my": 953,
      "cancer": 954,
      "IV": 955,
      "Me": 956,
      "bone": 957,
      "uction": 958,
      "male": 959,
      "Com": 960,
      "sel": 961,
      "chol": 962,
      "ility": 963,
      "rain": 964,
      "surg": 965,
      "clin": 966,
      ".*": 967,
      "risk": 968,
      "virus": 969,
      "system": 970,
      "au": 971,
      "called": 972,
      "pathy": 973,
      "xim": 974,
      "lower": 975,
      "recept": 976,
      "Par": 977,
      "hydro": 978,
      "cific": 979,
      "thyroid": 980,
      "RE": 981,
      "loss": 982,
      "enzy": 983,
      "als": 984,
      "pan": 985,
      "ext": 986,
      "face": 987,
      "18": 988,
      "As": 989,
      "these": 990,
      "through": 991,
      "tub": 992,
      "such": 993,
      "membr": 994,
      "av": 995,
      "En": 996,
      "head": 997,
      "small": 998,
      "weeks": 999,
      "injur": 1000,
      "az": 1001,
      "caused": 1002,
      "inding": 1003,
      "oth": 1004,
      "both": 1005,
      "tissue": 1006,
      "cases": 1007,
      "ural": 1008,
      "medi": 1009,
      "affect": 1010,
      "25": 1011,
      "She": 1012,
      "theli": 1013,
      "organ": 1014,
      "On": 1015,
      "las": 1016,
      "ese": 1017,
      "sen": 1018,
      "lung": 1019,
      "gra": 1020,
      "arter": 1021,
      "go": 1022,
      "11": 1023,
      "pen": 1024,
      "differ": 1025,
      "side": 1026,
      "wor": 1027,
      "den": 1028,
      "Di": 1029,
      "second": 1030,
      "aryn": 1031,
      "ish": 1032,
      "CT": 1033,
      "include": 1034,
      "cardi": 1035,
      "any": 1036,
      "oral": 1037,
      "ae": 1038,
      "ry": 1039,
      "time": 1040,
      "men": 1041,
      "100": 1042,
      "indic": 1043,
      "roph": 1044,
      "known": 1045,
      "vement": 1046,
      "inhibit": 1047,
      "bacter": 1048,
      "},": 1049,
      "appro": 1050,
      "{'": 1051,
      "some": 1052,
      "secre": 1053,
      "Le": 1054,
      "deficiency": 1055,
      "'},": 1056,
      "does": 1057,
      "abol": 1058,
      "flex": 1059,
      "king": 1060,
      "severe": 1061,
      "atures": 1062,
      "she": 1063,
      "tension": 1064,
      "book": 1065,
      "line": 1066,
      "No": 1067,
      "phys": 1068,
      "amm": 1069,
      "fract": 1070,
      "given": 1071,
      "tumor": 1072,
      "arm": 1073,
      "ie": 1074,
      "19": 1075,
      "mat": 1076,
      "positive": 1077,
      "AT": 1078,
      "ole": 1079,
      "gly": 1080,
      "heal": 1081,
      "ester": 1082,
      "ced": 1083,
      "within": 1084,
      "13": 1085,
      "ull": 1086,
      "CO": 1087,
      "ore": 1088,
      "til": 1089,
      "pression": 1090,
      "carcinoma": 1091,
      "found": 1092,
      "respir": 1093,
      "lic": 1094,
      "uter": 1095,
      "hor": 1096,
      "Har": 1097,
      "pat": 1098,
      "??": 1099,
      "includ": 1100,
      "bon": 1101,
      "tics": 1102,
      "ired": 1103,
      "fail": 1104,
      "ran": 1105,
      "Page": 1106,
      "amine": 1107,
      "ains": 1108,
      "du": 1109,
      "Ty": 1110,
      "hour": 1111,
      "ities": 1112,
      "very": 1113,
      "above": 1114,
      "muc": 1115,
      "14": 1116,
      "active": 1117,
      "There": 1118,
      "main": 1119,
      "..": 1120,
      "Ca": 1121,
      "anterior": 1122,
      "fever": 1123,
      "eding": 1124,
      "jo": 1125,
      "pregnancy": 1126,
      "rin": 1127,
      "gest": 1128,
      "commonly": 1129,
      "poly": 1130,
      "pend": 1131,
      "ages": 1132,
      "choice": 1133,
      "ization": 1134,
      "tern": 1135,
      "curren": 1136,
      "sible": 1137,
      "rosis": 1138,
      "fin": 1139,
      "ily": 1140,
      "often": 1141,
      "formation": 1142,
      "je": 1143,
      "ider": 1144,
      "gene": 1145,
      "posterior": 1146,
      "children": 1147,
      "ii": 1148,
      "part": 1149,
      "abnormal": 1150,
      "mis": 1151,
      "toma": 1152,
      "aneous": 1153,
      "ability": 1154,
      "pon": 1155,
      "cir": 1156,
      "bodies": 1157,
      "injury": 1158,
      "vascular": 1159,
      "large": 1160,
      "true": 1161,
      "gener": 1162,
      "dys": 1163,
      "ulin": 1164,
      "illary": 1165,
      "ulation": 1166,
      "gluc": 1167,
      "erg": 1168,
      "air": 1169,
      "glo": 1170,
      "group": 1171,
      "genital": 1172,
      "ton": 1173,
      "state": 1174,
      "levels": 1175,
      "page": 1176,
      "they": 1177,
      "neum": 1178,
      "cted": 1179,
      "Co": 1180,
      "These": 1181,
      "ru": 1182,
      "inc": 1183,
      "membrane": 1184,
      "24": 1185,
      "ER": 1186,
      "ker": 1187,
      "tho": 1188,
      "art": 1189,
      "yo": 1190,
      "drugs": 1191,
      "chronic": 1192,
      "ological": 1193,
      "phal": 1194,
      "AN": 1195,
      "IN": 1196,
      "mid": 1197,
      "throm": 1198,
      "infl": 1199,
      "occ": 1200,
      "AL": 1201,
      "IC": 1202,
      "num": 1203,
      "grow": 1204,
      "mi": 1205,
      "day": 1206,
      "bro": 1207,
      "block": 1208,
      "acc": 1209,
      "ution": 1210,
      "fore": 1211,
      "mil": 1212,
      "set": 1213,
      "nucle": 1214,
      "hemo": 1215,
      "aery": 1216,
      "fluid": 1217,
      "St": 1218,
      "multi": 1219,
      "bran": 1220,
      "Pre": 1221,
      "tend": 1222,
      "His": 1223,
      "ific": 1224,
      "characteris": 1225,
      "Tre": 1226,
      "upper": 1227,
      "oxy": 1228,
      "super": 1229,
      "neuro": 1230,
      "hum": 1231,
      "pri": 1232,
      "primary": 1233,
      "sal": 1234,
      "Sy": 1235,
      "aer": 1236,
      "chrom": 1237,
      "sol": 1238,
      "Hyper": 1239,
      "PT": 1240,
      "gre": 1241,
      "ni": 1242,
      "intest": 1243,
      "formed": 1244,
      "creases": 1245,
      "thal": 1246,
      "omal": 1247,
      "ternal": 1248,
      "DNA": 1249,
      "where": 1250,
      "Anti": 1251,
      "jor": 1252,
      "reaction": 1253,
      "60": 1254,
      "phen": 1255,
      "wall": 1256,
      "Refer": 1257,
      "uk": 1258,
      "failure": 1259,
      "Ad": 1260,
      "gas": 1261,
      "arr": 1262,
      "Cl": 1263,
      "ritis": 1264,
      "lesions": 1265,
      "ms": 1266,
      "vag": 1267,
      "medic": 1268,
      "esis": 1269,
      "cles": 1270,
      "gative": 1271,
      "meth": 1272,
      "pulmonary": 1273,
      "atal": 1274,
      "Her": 1275,
      "trac": 1276,
      "tosis": 1277,
      "Gl": 1278,
      "aden": 1279,
      "ound": 1280,
      "features": 1281,
      "lateral": 1282,
      "activity": 1283,
      "40": 1284,
      "epi": 1285,
      "ants": 1286,
      "metabol": 1287,
      "ful": 1288,
      "stimul": 1289,
      "bas": 1290,
      "cord": 1291,
      "current": 1292,
      "log": 1293,
      "ventric": 1294,
      "person": 1295,
      "divid": 1296,
      "ctomy": 1297,
      "gland": 1298,
      "uced": 1299,
      "Per": 1300,
      "pir": 1301,
      "abdominal": 1302,
      "water": 1303,
      "Ab": 1304,
      "pare": 1305,
      "sing": 1306,
      "oti": 1307,
      "specific": 1308,
      "centr": 1309,
      "itamin": 1310,
      "ht": 1311,
      "oly": 1312,
      "done": 1313,
      "Be": 1314,
      "inflamm": 1315,
      "gres": 1316,
      "meas": 1317,
      "best": 1318,
      "their": 1319,
      "supp": 1320,
      "way": 1321,
      "toxic": 1322,
      "IO": 1323,
      "urine": 1324,
      "eye": 1325,
      "struct": 1326,
      "fusion": 1327,
      "Ig": 1328,
      "row": 1329,
      "dic": 1330,
      "fective": 1331,
      "rison": 1332,
      "surgery": 1333,
      "ator": 1334,
      "branch": 1335,
      "For": 1336,
      "comes": 1337,
      "result": 1338,
      "Fe": 1339,
      "Hg": 1340,
      "mor": 1341,
      "agement": 1342,
      "contro": 1343,
      "hal": 1344,
      "sensi": 1345,
      "hours": 1346,
      "factor": 1347,
      "CE": 1348,
      "then": 1349,
      "pic": 1350,
      "frequ": 1351,
      "CD": 1352,
      "clinical": 1353,
      "fracture": 1354,
      "ked": 1355,
      "position": 1356,
      "results": 1357,
      "cler": 1358,
      "orrh": 1359,
      "idne": 1360,
      "enzyme": 1361,
      "ments": 1362,
      "period": 1363,
      "case": 1364,
      "ulcer": 1365,
      "ogra": 1366,
      "plac": 1367,
      "increase": 1368,
      "diagnos": 1369,
      "If": 1370,
      "direct": 1371,
      "200": 1372,
      "who": 1373,
      "AS": 1374,
      "weight": 1375,
      "Harrison": 1376,
      "tig": 1377,
      "chang": 1378,
      "What": 1379,
      "try": 1380,
      "site": 1381,
      "finding": 1382,
      ".#": 1383,
      "tial": 1384,
      "dil": 1385,
      "thetic": 1386,
      "urn": 1387,
      "absor": 1388,
      "deg": 1389,
      "rd": 1390,
      "que": 1391,
      "ges": 1392,
      "sus": 1393,
      "depend": 1394,
      "iv": 1395,
      "17": 1396,
      "Treatment": 1397,
      "sug": 1398,
      "surface": 1399,
      "thesis": 1400,
      "rim": 1401,
      "cm": 1402,
      "lor": 1403,
      "medical": 1404,
      "concentr": 1405,
      "aining": 1406,
      "post": 1407,
      "malign": 1408,
      "intra": 1409,
      "dose": 1410,
      "16": 1411,
      "ana": 1412,
      "ocytes": 1413,
      "23": 1414,
      "hol": 1415,
      "serum": 1416,
      "plasma": 1417,
      "ema": 1418,
      "woman": 1419,
      "ring": 1420,
      "tor": 1421,
      "atin": 1422,
      "tract": 1423,
      "sed": 1424,
      "respiratory": 1425,
      "lay": 1426,
      "tri": 1427,
      "omas": 1428,
      "__": 1429,
      "ult": 1430,
      "anal": 1431,
      "ately": 1432,
      "ward": 1433,
      "ume": 1434,
      "kal": 1435,
      "Im": 1436,
      "term": 1437,
      "complic": 1438,
      "osa": 1439,
      "brain": 1440,
      "breast": 1441,
      "omy": 1442,
      "gran": 1443,
      "agon": 1444,
      "involved": 1445,
      "rogen": 1446,
      "negative": 1447,
      "They": 1448,
      "coma": 1449,
      "process": 1450,
      "without": 1451,
      "lesion": 1452,
      "would": 1453,
      "oper": 1454,
      "presence": 1455,
      "psy": 1456,
      "tro": 1457,
      "major": 1458,
      "ained": 1459,
      "iat": 1460,
      "port": 1461,
      "though": 1462,
      "ive": 1463,
      "bral": 1464,
      "geal": 1465,
      "reve": 1466,
      "vessel": 1467,
      "mur": 1468,
      "att": 1469,
      "hormon": 1470,
      "area": 1471,
      "characterized": 1472,
      "perature": 1473,
      "diabe": 1474,
      "ites": 1475,
      "uria": 1476,
      "oste": 1477,
      "epitheli": 1478,
      "verse": 1479,
      "ison": 1480,
      "urg": 1481,
      "venous": 1482,
      "adi": 1483,
      "ules": 1484,
      "defect": 1485,
      "glucose": 1486,
      "artery": 1487,
      "muscles": 1488,
      "pneum": 1489,
      "ene": 1490,
      "cys": 1491,
      "ray": 1492,
      "rele": 1493,
      "io": 1494,
      "kidne": 1495,
      "Car": 1496,
      "esoph": 1497,
      "ocal": 1498,
      "AR": 1499,
      "death": 1500,
      "apid": 1501,
      "life": 1502,
      "vein": 1503,
      "pto": 1504,
      "uch": 1505,
      "dete": 1506,
      "hel": 1507,
      "ina": 1508,
      "icular": 1509,
      "&;": 1510,
      "smo": 1511,
      "growth": 1512,
      "90": 1513,
      "light": 1514,
      "ze": 1515,
      "omer": 1516,
      "EN": 1517,
      "rine": 1518,
      "chest": 1519,
      "proteins": 1520,
      "nec": 1521,
      "lip": 1522,
      "cardiac": 1523,
      "uration": 1524,
      "fac": 1525,
      "mass": 1526,
      "sinus": 1527,
      "assi": 1528,
      "temperature": 1529,
      "Type": 1530,
      "development": 1531,
      "ow": 1532,
      "enter": 1533,
      "Dr": 1534,
      "ses": 1535,
      "had": 1536,
      "past": 1537,
      "hand": 1538,
      "tration": 1539,
      "ently": 1540,
      "ergen": 1541,
      "py": 1542,
      "pit": 1543,
      "ED": 1544,
      "lim": 1545,
      "EX": 1546,
      "cere": 1547,
      "olar": 1548,
      "mole": 1549,
      "last": 1550,
      "micro": 1551,
      "response": 1552,
      "apter": 1553,
      "cohol": 1554,
      "signific": 1555,
      "appearance": 1556,
      "fat": 1557,
      "cial": 1558,
      "fam": 1559,
      "pheral": 1560,
      "Clin": 1561,
      "ocardi": 1562,
      "changes": 1563,
      "edema": 1564,
      "antigen": 1565,
      "bleeding": 1566,
      "ists": 1567,
      "let": 1568,
      "effects": 1569,
      "obstr": 1570,
      "new": 1571,
      "So": 1572,
      "refer": 1573,
      "elev": 1574,
      "initi": 1575,
      "ferior": 1576,
      "minis": 1577,
      "Ser": 1578,
      "cyst": 1579,
      "copy": 1580,
      "characteristic": 1581,
      "mac": 1582,
      "tex": 1583,
      "ube": 1584,
      "cut": 1585,
      "resist": 1586,
      "ST": 1587,
      "wever": 1588,
      "affected": 1589,
      "pti": 1590,
      "lab": 1591,
      "ides": 1592,
      "ament": 1593,
      "80": 1594,
      "ture": 1595,
      "cyto": 1596,
      "IT": 1597,
      "onic": 1598,
      "management": 1599,
      "sto": 1600,
      "defin": 1601,
      "Text": 1602,
      "Reference": 1603,
      "anemia": 1604,
      "ram": 1605,
      "expos": 1606,
      "neck": 1607,
      "opathy": 1608,
      "joint": 1609,
      "method": 1610,
      "receptor": 1611,
      "arch": 1612,
      "vical": 1613,
      "ational": 1614,
      "asal": 1615,
      "again": 1616,
      "cium": 1617,
      "Pos": 1618,
      "need": 1619,
      "lla": 1620,
      "rare": 1621,
      "globin": 1622,
      "dL": 1623,
      "pass": 1624,
      "contin": 1625,
      "valu": 1626,
      "To": 1627,
      "ger": 1628,
      "sequ": 1629,
      "decreased": 1630,
      "early": 1631,
      "termin": 1632,
      "gal": 1633,
      "tivity": 1634,
      "mut": 1635,
      "heart": 1636,
      "prevent": 1637,
      "times": 1638,
      "progres": 1639,
      "exam": 1640,
      "nar": 1641,
      "oxygen": 1642,
      "Trans": 1643,
      "Increased": 1644,
      "flow": 1645,
      "Hypo": 1646,
      "multiple": 1647,
      "Un": 1648,
      "tin": 1649,
      "ons": 1650,
      "ifest": 1651,
      "receptors": 1652,
      "Edition": 1653,
      "yst": 1654,
      "pur": 1655,
      "pulse": 1656,
      "Textbook": 1657,
      "number": 1658,
      "ped": 1659,
      "volume": 1660,
      "elect": 1661,
      "ross": 1662,
      "dle": 1663,
      "Dis": 1664,
      "leuk": 1665,
      "significant": 1666,
      "chanism": 1667,
      "enal": 1668,
      "Other": 1669,
      "sens": 1670,
      "come": 1671,
      "patic": 1672,
      "types": 1673,
      "concentration": 1674,
      "dium": 1675,
      "factors": 1676,
      "oxid": 1677,
      "iting": 1678,
      "70": 1679,
      "stage": 1680,
      "ning": 1681,
      "oids": 1682,
      "oder": 1683,
      "hydr": 1684,
      "amo": 1685,
      "Clinical": 1686,
      "aryngeal": 1687,
      "secretion": 1688,
      "complete": 1689,
      "back": 1690,
      "phase": 1691,
      "ergency": 1692,
      "Acute": 1693,
      "clo": 1694,
      "bul": 1695,
      "bor": 1696,
      "amino": 1697,
      "gram": 1698,
      "ality": 1699,
      "organism": 1700,
      "iter": 1701,
      "tuber": 1702,
      "sa": 1703,
      "RI": 1704,
      "dos": 1705,
      "plate": 1706,
      "before": 1707,
      "adder": 1708,
      "rapid": 1709,
      "vic": 1710,
      "intestinal": 1711,
      "patitis": 1712,
      "female": 1713,
      "dam": 1714,
      "three": 1715,
      "III": 1716,
      "fication": 1717,
      "bron": 1718,
      "tumors": 1719,
      "oplas": 1720,
      "ule": 1721,
      "place": 1722,
      "mer": 1723,
      "pot": 1724,
      "related": 1725,
      "itary": 1726,
      "ash": 1727,
      "otic": 1728,
      "synthesis": 1729,
      "BC": 1730,
      "onia": 1731,
      "sex": 1732,
      "22": 1733,
      "lac": 1734,
      "class": 1735,
      "complex": 1736,
      "ental": 1737,
      "vestig": 1738,
      "When": 1739,
      "intr": 1740,
      "tak": 1741,
      "bar": 1742,
      "wa": 1743,
      "stand": 1744,
      "ician": 1745,
      "ential": 1746,
      "compl": 1747,
      "Mic": 1748,
      "ula": 1749,
      "anes": 1750,
      "ID": 1751,
      "manifest": 1752,
      "Mal": 1753,
      "below": 1754,
      "Drug": 1755,
      "seud": 1756,
      "remo": 1757,
      "reflex": 1758,
      "pel": 1759,
      "ili": 1760,
      "against": 1761,
      "opsy": 1762,
      "agent": 1763,
      "women": 1764,
      "chem": 1765,
      "tered": 1766,
      "atus": 1767,
      "ape": 1768,
      "mater": 1769,
      "immune": 1770,
      "efore": 1771,
      "kidney": 1772,
      "vessels": 1773,
      "stud": 1774,
      "NS": 1775,
      "ones": 1776,
      "gin": 1777,
      "ster": 1778,
      "ust": 1779,
      "signs": 1780,
      "ples": 1781,
      "comm": 1782,
      "suf": 1783,
      "pig": 1784,
      "fied": 1785,
      "duce": 1786,
      "tumour": 1787,
      "poten": 1788,
      "control": 1789,
      "count": 1790,
      "ov": 1791,
      "ventricular": 1792,
      "lect": 1793,
      "21": 1794,
      "crib": 1795,
      "medial": 1796,
      "Res": 1797,
      "put": 1798,
      "Normal": 1799,
      "onset": 1800,
      "Pati": 1801,
      "6th": 1802,
      "emergency": 1803,
      "vision": 1804,
      "loid": 1805,
      "Chapter": 1806,
      "increases": 1807,
      "along": 1808,
      "infections": 1809,
      "feature": 1810,
      "RNA": 1811,
      "effective": 1812,
      "paren": 1813,
      "chon": 1814,
      "000": 1815,
      "Diagn": 1816,
      "uses": 1817,
      "while": 1818,
      "ler": 1819,
      "nd": 1820,
      "physician": 1821,
      "kg": 1822,
      "dividual": 1823,
      "ird": 1824,
      "secondary": 1825,
      "traum": 1826,
      "causing": 1827,
      "obstruction": 1828,
      "pair": 1829,
      "mother": 1830,
      "gth": 1831,
      "CA": 1832,
      "sul": 1833,
      "space": 1834,
      "being": 1835,
      "cessive": 1836,
      "plant": 1837,
      "ES": 1838,
      "pi": 1839,
      "week": 1840,
      "Ob": 1841,
      "produce": 1842,
      "plasia": 1843,
      "acids": 1844,
      "size": 1845,
      "neur": 1846,
      "requi": 1847,
      "adminis": 1848,
      "coun": 1849,
      "Sub": 1850,
      "including": 1851,
      "acts": 1852,
      "distr": 1853,
      "consider": 1854,
      "get": 1855,
      "peripheral": 1856,
      "omat": 1857,
      "NO": 1858,
      "deliver": 1859,
      "astro": 1860,
      "Non": 1861,
      "7th": 1862,
      "cat": 1863,
      "nel": 1864,
      "urin": 1865,
      "bladder": 1866,
      "Ar": 1867,
      "ither": 1868,
      "option": 1869,
      "region": 1870,
      "Li": 1871,
      "care": 1872,
      "By": 1873,
      "Na": 1874,
      "change": 1875,
      "conditions": 1876,
      "appropri": 1877,
      "AD": 1878,
      "alcohol": 1879,
      "ticular": 1880,
      "jun": 1881,
      "illi": 1882,
      "mental": 1883,
      "na": 1884,
      "cemia": 1885,
      "ised": 1886,
      "bronch": 1887,
      "same": 1888,
      "At": 1889,
      "ben": 1890,
      "leads": 1891,
      "):": 1892,
      "health": 1893,
      "domin": 1894,
      "Af": 1895,
      "Bi": 1896,
      "local": 1897,
      "central": 1898,
      "pect": 1899,
      "Park": 1900,
      "ious": 1901,
      "TH": 1902,
      "lies": 1903,
      "ils": 1904,
      "physical": 1905,
      "findings": 1906,
      "production": 1907,
      "hemorrh": 1908,
      "Pres": 1909,
      "thick": 1910,
      "measure": 1911,
      "bed": 1912,
      "individual": 1913,
      "Ho": 1914,
      "ade": 1915,
      "My": 1916,
      "yel": 1917,
      "duction": 1918,
      "seg": 1919,
      "poison": 1920,
      "antibodies": 1921,
      "movement": 1922,
      "diseases": 1923,
      "cav": 1924,
      "dex": 1925,
      "chromos": 1926,
      "poant": 1927,
      "osp": 1928,
      "allow": 1929,
      "hormone": 1930,
      "Cy": 1931,
      "fil": 1932,
      "eth": 1933,
      "mas": 1934,
      "len": 1935,
      "breath": 1936,
      "35": 1937,
      "disorders": 1938,
      "iatric": 1939,
      "vention": 1940,
      "45": 1941,
      "clos": 1942,
      "diabetes": 1943,
      "hepatic": 1944,
      "neph": 1945,
      "weak": 1946,
      "combin": 1947,
      "phosphate": 1948,
      "Blo": 1949,
      "occus": 1950,
      "Sch": 1951,
      "involvement": 1952,
      "sor": 1953,
      "treated": 1954,
      "che": 1955,
      "colon": 1956,
      "IS": 1957,
      "pin": 1958,
      "asc": 1959,
      "single": 1960,
      "tical": 1961,
      "High": 1962,
      "PA": 1963,
      "biopsy": 1964,
      "cervical": 1965,
      "US": 1966,
      "base": 1967,
      "diffic": 1968,
      "37": 1969,
      "Col": 1970,
      "amy": 1971,
      "HIV": 1972,
      "limb": 1973,
      "vom": 1974,
      "appears": 1975,
      "calcium": 1976,
      "Medic": 1977,
      "mechanism": 1978,
      "males": 1979,
      "thromb": 1980,
      "malignant": 1981,
      "appropriate": 1982,
      "----": 1983,
      "cti": 1984,
      "chlor": 1985,
      "ints": 1986,
      "ock": 1987,
      "ximal": 1988,
      "superior": 1989,
      "reveals": 1990,
      "ways": 1991,
      "forms": 1992,
      "peen": 1993,
      "born": 1994,
      "text": 1995,
      "stu": 1996,
      "cies": 1997,
      "lum": 1998,
      "internal": 1999,
      "itus": 2000,
      "pancre": 2001,
      "study": 2002,
      "required": 2003,
      "da": 2004,
      "bab": 2005,
      "axis": 2006,
      "gastric": 2007,
      "ref": 2008,
      "REF": 2009,
      "plan": 2010,
      "OF": 2011,
      "regard": 2012,
      "iron": 2013,
      "vie": 2014,
      "idence": 2015,
      "oic": 2016,
      "pattern": 2017,
      "absorption": 2018,
      "True": 2019,
      "fetal": 2020,
      "ilateral": 2021,
      "round": 2022,
      "Pul": 2023,
      "inferior": 2024,
      "ocyte": 2025,
      "28": 2026,
      "itation": 2027,
      "ION": 2028,
      "ptoc": 2029,
      "phil": 2030,
      "Pg": 2031,
      "MC": 2032,
      "human": 2033,
      "wel": 2034,
      "ologic": 2035,
      "asy": 2036,
      "several": 2037,
      "down": 2038,
      "off": 2039,
      "vious": 2040,
      "produced": 2041,
      "metast": 2042,
      "Ly": 2043,
      "CEPT": 2044,
      "trial": 2045,
      "stric": 2046,
      "%)": 2047,
      "thor": 2048,
      "ocial": 2049,
      "ling": 2050,
      "tissues": 2051,
      "ergic": 2052,
      "vitamin": 2053,
      "EC": 2054,
      "tech": 2055,
      "diarr": 2056,
      "point": 2057,
      "limit": 2058,
      "PH": 2059,
      "popul": 2060,
      "view": 2061,
      "clerosis": 2062,
      "agents": 2063,
      "Dise": 2064,
      "impoant": 2065,
      "Cor": 2066,
      "angle": 2067,
      "Prim": 2068,
      "location": 2069,
      "Inter": 2070,
      "free": 2071,
      "cis": 2072,
      "Radi": 2073,
      "lap": 2074,
      "physi": 2075,
      "occi": 2076,
      "many": 2077,
      "utes": 2078,
      "epis": 2079,
      "pha": 2080,
      "rest": 2081,
      "ught": 2082,
      "EXCEPT": 2083,
      "cri": 2084,
      "Su": 2085,
      "either": 2086,
      "gang": 2087,
      "ited": 2088,
      "spinal": 2089,
      "uble": 2090,
      "granul": 2091,
      "plex": 2092,
      "extre": 2093,
      "cutaneous": 2094,
      "bol": 2095,
      "para": 2096,
      "suggest": 2097,
      "thesia": 2098,
      "ml": 2099,
      "lying": 2100,
      "total": 2101,
      "thyl": 2102,
      "bacteria": 2103,
      "TB": 2104,
      "ah": 2105,
      "welling": 2106,
      "commend": 2107,
      "Red": 2108,
      "leg": 2109,
      "includes": 2110,
      "We": 2111,
      "each": 2112,
      "different": 2113,
      "creasing": 2114,
      "proced": 2115,
      "tube": 2116,
      "ults": 2117,
      "ulti": 2118,
      "nea": 2119,
      "antibody": 2120,
      "vaginal": 2121,
      "rupt": 2122,
      "middle": 2123,
      "tur": 2124,
      "yr": 2125,
      "insulin": 2126,
      "continu": 2127,
      "Medicine": 2128,
      "sch": 2129,
      "ied": 2130,
      "utr": 2131,
      "deep": 2132,
      "regular": 2133,
      "cycle": 2134,
      "vomiting": 2135,
      "Chronic": 2136,
      "elevated": 2137,
      "mild": 2138,
      "damage": 2139,
      "Man": 2140,
      "omic": 2141,
      "ection": 2142,
      "family": 2143,
      "ush": 2144,
      "Cal": 2145,
      "ago": 2146,
      "ography": 2147,
      "equ": 2148,
      "ligament": 2149,
      "illin": 2150,
      "CS": 2151,
      "gu": 2152,
      "copic": 2153,
      "otid": 2154,
      "vul": 2155,
      "alysis": 2156,
      "mission": 2157,
      "Diagnosis": 2158,
      "pread": 2159,
      "olytic": 2160,
      "third": 2161,
      "least": 2162,
      "investig": 2163,
      "trauma": 2164,
      "nodes": 2165,
      "those": 2166,
      "ache": 2167,
      "rh": 2168,
      "transfer": 2169,
      "general": 2170,
      "necrosis": 2171,
      "However": 2172,
      "nerv": 2173,
      "sensitivity": 2174,
      "having": 2175,
      "step": 2176,
      ")*": 2177,
      "eful": 2178,
      "fuse": 2179,
      "ters": 2180,
      "stre": 2181,
      "poisoning": 2182,
      "distal": 2183,
      "dominant": 2184,
      "release": 2185,
      "clear": 2186,
      "lact": 2187,
      "oratory": 2188,
      "around": 2189,
      "pecial": 2190,
      "75": 2191,
      "inflammation": 2192,
      "ances": 2193,
      "late": 2194,
      "ived": 2195,
      "aw": 2196,
      ".>": 2197,
      "PC": 2198,
      "inflammatory": 2199,
      "Rob": 2200,
      "responsible": 2201,
      "congenital": 2202,
      "hip": 2203,
      "population": 2204,
      "3rd": 2205,
      "LO": 2206,
      "mand": 2207,
      "even": 2208,
      "Common": 2209,
      "circul": 2210,
      "PD": 2211,
      "identi": 2212,
      "studies": 2213,
      "sym": 2214,
      "ible": 2215,
      "lu": 2216,
      "reduced": 2217,
      "cour": 2218,
      "ady": 2219,
      "rophy": 2220,
      "Hem": 2221,
      "abnormalities": 2222,
      "xyl": 2223,
      "xy": 2224,
      "ec": 2225,
      "glomer": 2226,
      "exposure": 2227,
      "Or": 2228,
      "aris": 2229,
      "accine": 2230,
      "scan": 2231,
      "MP": 2232,
      "mening": 2233,
      "titis": 2234,
      "glut": 2235,
      "develops": 2236,
      "compon": 2237,
      "reco": 2238,
      "RA": 2239,
      "typically": 2240,
      "gon": 2241,
      "36": 2242,
      "tender": 2243,
      "Answer": 2244,
      "fing": 2245,
      "infect": 2246,
      "hair": 2247,
      "agen": 2248,
      "uterine": 2249,
      "ont": 2250,
      "pap": 2251,
      "fal": 2252,
      "aindic": 2253,
      "culosis": 2254,
      "itone": 2255,
      "lied": 2256,
      "import": 2257,
      "cardia": 2258,
      "young": 2259,
      "decrease": 2260,
      "odes": 2261,
      "dra": 2262,
      "orig": 2263,
      "eg": 2264,
      "LE": 2265,
      "cus": 2266,
      "amide": 2267,
      "tomach": 2268,
      "swelling": 2269,
      "useful": 2270,
      "Is": 2271,
      "areas": 2272,
      "motor": 2273,
      "spl": 2274,
      "brought": 2275,
      "Micro": 2276,
      "tio": 2277,
      "LD": 2278,
      "using": 2279,
      "evalu": 2280,
      "border": 2281,
      "now": 2282,
      "pneumonia": 2283,
      "ogenesis": 2284,
      "aging": 2285,
      "considered": 2286,
      "ori": 2287,
      "carri": 2288,
      "based": 2289,
      "uce": 2290,
      "endo": 2291,
      "textbook": 2292,
      "contains": 2293,
      "defined": 2294,
      "simil": 2295,
      "canal": 2296,
      "antibi": 2297,
      "mediate": 2298,
      "mucosa": 2299,
      "Do": 2300,
      "RO": 2301,
      "Ce": 2302,
      "SH": 2303,
      "recommend": 2304,
      "Syn": 2305,
      "made": 2306,
      "Surg": 2307,
      "tolic": 2308,
      "amen": 2309,
      "dependent": 2310,
      "leep": 2311,
      "ficial": 2312,
      "8th": 2313,
      "pers": 2314,
      "xia": 2315,
      "urinary": 2316,
      "abdomen": 2317,
      "ending": 2318,
      "similar": 2319,
      "work": 2320,
      "pathetic": 2321,
      "rit": 2322,
      "llular": 2323,
      "tomatic": 2324,
      "next": 2325,
      "tyl": 2326,
      "Serum": 2327,
      "were": 2328,
      "monstr": 2329,
      "MA": 2330,
      "bowel": 2331,
      "Phys": 2332,
      "resistance": 2333,
      "aped": 2334,
      "surgical": 2335,
      "Primary": 2336,
      "aring": 2337,
      "pine": 2338,
      "differenti": 2339,
      "Pan": 2340,
      "followed": 2341,
      "enzymes": 2342,
      "pigment": 2343,
      "hypeen": 2344,
      "ize": 2345,
      "encephal": 2346,
      "poor": 2347,
      "Lymph": 2348,
      "ort": 2349,
      "pecially": 2350,
      "provid": 2351,
      "agus": 2352,
      "mark": 2353,
      "Super": 2354,
      "sac": 2355,
      "commun": 2356,
      "Cardi": 2357,
      "Path": 2358,
      "CH": 2359,
      "especially": 2360,
      "addition": 2361,
      "ject": 2362,
      "among": 2363,
      "external": 2364,
      "pepti": 2365,
      "hemat": 2366,
      "achy": 2367,
      "nit": 2368,
      "idal": 2369,
      "2nd": 2370,
      "ids": 2371,
      "located": 2372,
      "arcoma": 2373,
      "section": 2374,
      "exten": 2375,
      "osin": 2376,
      "mitted": 2377,
      "Vitamin": 2378,
      "pes": 2379,
      "lob": 2380,
      "ageal": 2381,
      "Gluc": 2382,
      "thyroidism": 2383,
      "angi": 2384,
      "chain": 2385,
      "retin": 2386,
      "beta": 2387,
      "cum": 2388,
      "bile": 2389,
      "resulting": 2390,
      "nia": 2391,
      "tras": 2392,
      "histo": 2393,
      "Ther": 2394,
      "regarding": 2395,
      "self": 2396,
      "important": 2397,
      "polar": 2398,
      "diagnosed": 2399,
      "hepatitis": 2400,
      "istent": 2401,
      "uth": 2402,
      "progressive": 2403,
      "take": 2404,
      "ond": 2405,
      "Au": 2406,
      "oft": 2407,
      "ping": 2408,
      "impro": 2409,
      "food": 2410,
      "vac": 2411,
      "sten": 2412,
      "toxicity": 2413,
      "psych": 2414,
      "thus": 2415,
      "Gen": 2416,
      "bins": 2417,
      "sodium": 2418,
      "LA": 2419,
      "cran": 2420,
      "generation": 2421,
      "nod": 2422,
      "channel": 2423,
      "Blood": 2424,
      "Ap": 2425,
      "wound": 2426,
      "describ": 2427,
      "progn": 2428,
      "extr": 2429,
      "delivery": 2430,
      "recurrent": 2431,
      "Fol": 2432,
      "vaccine": 2433,
      "Neuro": 2434,
      "Posterior": 2435,
      "bilateral": 2436,
      "leading": 2437,
      "sw": 2438,
      "performed": 2439,
      "classi": 2440,
      "subst": 2441,
      "greater": 2442,
      "systemic": 2443,
      "heum": 2444,
      "presentation": 2445,
      "slow": 2446,
      "cannot": 2447,
      "arily": 2448,
      "tention": 2449,
      "supply": 2450,
      "demonstr": 2451,
      "evid": 2452,
      "later": 2453,
      "ratio": 2454,
      "few": 2455,
      "developed": 2456,
      "ptic": 2457,
      "valve": 2458,
      "rash": 2459,
      "grad": 2460,
      "itu": 2461,
      "Met": 2462,
      "DT": 2463,
      "hypertension": 2464,
      "cavity": 2465,
      "oblas": 2466,
      "ocytosis": 2467,
      "adults": 2468,
      "scal": 2469,
      "cystic": 2470,
      "diagnostic": 2471,
      "nasal": 2472,
      "98": 2473,
      "alve": 2474,
      "kele": 2475,
      "9th": 2476,
      "repe": 2477,
      "bir": 2478,
      "cellular": 2479,
      "tation": 2480,
      "mptomatic": 2481,
      "hemoglobin": 2482,
      "open": 2483,
      "induced": 2484,
      "star": 2485,
      "aged": 2486,
      "pected": 2487,
      "xed": 2488,
      "Physical": 2489,
      "ged": 2490,
      "contraction": 2491,
      "proximal": 2492,
      "absence": 2493,
      "27": 2494,
      "acting": 2495,
      "become": 2496,
      "hydrogen": 2497,
      "potential": 2498,
      "bal": 2499,
      "gangli": 2500,
      "epithelium": 2501,
      "sta": 2502,
      "stro": 2503,
      "sound": 2504,
      "lifer": 2505,
      "%.": 2506,
      "version": 2507,
      "48": 2508,
      "bih": 2509,
      "acellular": 2510,
      "oxide": 2511,
      "bic": 2512,
      "uterus": 2513,
      "lie": 2514,
      "abscess": 2515,
      "rib": 2516,
      "seiz": 2517,
      "kne": 2518,
      "ospital": 2519,
      "idine": 2520,
      "obser": 2521,
      "incidence": 2522,
      "tests": 2523,
      "esterol": 2524,
      "soci": 2525,
      "auto": 2526,
      "Mo": 2527,
      "tit": 2528,
      "bacterial": 2529,
      "Po": 2530,
      "visual": 2531,
      "oster": 2532,
      "origin": 2533,
      "beha": 2534,
      "stomach": 2535,
      "After": 2536,
      "sensitive": 2537,
      "spread": 2538,
      "ished": 2539,
      "placed": 2540,
      "carbo": 2541,
      "white": 2542,
      "nerves": 2543,
      "micros": 2544,
      "jug": 2545,
      "Anterior": 2546,
      "boy": 2547,
      "mell": 2548,
      "azole": 2549,
      "Decreased": 2550,
      "avail": 2551,
      "zy": 2552,
      "vo": 2553,
      "lobe": 2554,
      "fibers": 2555,
      "involves": 2556,
      "thin": 2557,
      "charge": 2558,
      "Medical": 2559,
      "Lo": 2560,
      "van": 2561,
      "depression": 2562,
      "facial": 2563,
      "half": 2564,
      "ficient": 2565,
      "frequently": 2566,
      "sk": 2567,
      "inhibitors": 2568,
      "foot": 2569,
      "radiation": 2570,
      "chondr": 2571,
      "scre": 2572,
      "minim": 2573,
      "lit": 2574,
      "relative": 2575,
      "toxin": 2576,
      "viral": 2577,
      "posed": 2578,
      "layer": 2579,
      "acin": 2580,
      "mutation": 2581,
      "orb": 2582,
      "cephal": 2583,
      "lan": 2584,
      "medicine": 2585,
      "wal": 2586,
      "ograph": 2587,
      "sam": 2588,
      "26": 2589,
      "99": 2590,
      "duod": 2591,
      "partment": 2592,
      "cerebral": 2593,
      "itor": 2594,
      "excre": 2595,
      "course": 2596,
      "Str": 2597,
      "ATP": 2598,
      "oscopy": 2599,
      "4th": 2600,
      "becomes": 2601,
      "Robbins": 2602,
      "amic": 2603,
      "Prote": 2604,
      "glands": 2605,
      "OC": 2606,
      "ogenic": 2607,
      "OR": 2608,
      "shown": 2609,
      "ergy": 2610,
      "Ag": 2611,
      "alkal": 2612,
      "aria": 2613,
      "ameter": 2614,
      "ovari": 2615,
      "recent": 2616,
      "presented": 2617,
      "wards": 2618,
      "index": 2619,
      "yn": 2620,
      "rece": 2621,
      "neon": 2622,
      "Renal": 2623,
      "assess": 2624,
      "Multi": 2625,
      "ducts": 2626,
      "agonist": 2627,
      "embol": 2628,
      "absent": 2629,
      "contraindic": 2630,
      "O2": 2631,
      "pathway": 2632,
      "asion": 2633,
      "produces": 2634,
      "95": 2635,
      "bell": 2636,
      "previous": 2637,
      "node": 2638,
      "longed": 2639,
      "mainly": 2640,
      "Low": 2641,
      "gastro": 2642,
      "higher": 2643,
      "atitis": 2644,
      "weakness": 2645,
      "stenosis": 2646,
      "onal": 2647,
      "tempor": 2648,
      "detect": 2649,
      "pH": 2650,
      "tib": 2651,
      "Vas": 2652,
      "adrenal": 2653,
      "GE": 2654,
      "hyth": 2655,
      "must": 2656,
      "sele": 2657,
      "containing": 2658,
      "ito": 2659,
      "BP": 2660,
      "Sever": 2661,
      "invas": 2662,
      "tosomal": 2663,
      "veins": 2664,
      "hemorrhage": 2665,
      "bac": 2666,
      "rag": 2667,
      "chy": 2668,
      "comp": 2669,
      "Post": 2670,
      "sc": 2671,
      "prolifer": 2672,
      "hospital": 2673,
      "cover": 2674,
      "==": 2675,
      "During": 2676,
      "fall": 2677,
      "range": 2678,
      "Both": 2679,
      "Oste": 2680,
      "ather": 2681,
      "Mus": 2682,
      "birth": 2683,
      "genic": 2684,
      "structure": 2685,
      "iteria": 2686,
      "esophagus": 2687,
      "isol": 2688,
      "complication": 2689,
      "pub": 2690,
      "epithelial": 2691,
      "fatty": 2692,
      "tim": 2693,
      "emic": 2694,
      "logical": 2695,
      "Pulmonary": 2696,
      "mature": 2697,
      "structures": 2698,
      "diarrhea": 2699,
      "infar": 2700,
      "mE": 2701,
      "Patients": 2702,
      "segment": 2703,
      "lymphoma": 2704,
      "Second": 2705,
      "atr": 2706,
      "38": 2707,
      "event": 2708,
      "sour": 2709,
      "pid": 2710,
      "rium": 2711,
      "nucleus": 2712,
      "marrow": 2713,
      "chromosome": 2714,
      "role": 2715,
      "matic": 2716,
      "esophageal": 2717,
      "distrib": 2718,
      "piration": 2719,
      "oneph": 2720,
      "rad": 2721,
      "galy": 2722,
      "daily": 2723,
      "neal": 2724,
      "techni": 2725,
      "mEq": 2726,
      "genetic": 2727,
      "ja": 2728,
      "Ear": 2729,
      "1st": 2730,
      "sleep": 2731,
      "oles": 2732,
      "maxim": 2733,
      "hall": 2734,
      "ople": 2735,
      "wr": 2736,
      "ured": 2737,
      "Es": 2738,
      "ech": 2739,
      "trig": 2740,
      "procedure": 2741,
      "four": 2742,
      "Hb": 2743,
      "them": 2744,
      "fibrosis": 2745,
      "inhibitor": 2746,
      "Lab": 2747,
      "enic": 2748,
      "derived": 2749,
      "AB": 2750,
      "erythe": 2751,
      "ores": 2752,
      "peritone": 2753,
      "PV": 2754,
      "mediated": 2755,
      "amp": 2756,
      "haem": 2757,
      "arynx": 2758,
      "press": 2759,
      "proble": 2760,
      "indicated": 2761,
      "cit": 2762,
      "minutes": 2763,
      "Ul": 2764,
      "cording": 2765,
      "IL": 2766,
      "shaped": 2767,
      "contrac": 2768,
      "sis": 2769,
      "soft": 2770,
      "cough": 2771,
      "Thy": 2772,
      "room": 2773,
      "tose": 2774,
      "Dia": 2775,
      "chemo": 2776,
      "marked": 2777,
      "la": 2778,
      "HC": 2779,
      "ocar": 2780,
      "metabolism": 2781,
      "squ": 2782,
      "activation": 2783,
      "pical": 2784,
      "rever": 2785,
      "ff": 2786,
      "influ": 2787,
      "aine": 2788,
      "kinase": 2789,
      "tus": 2790,
      "paired": 2791,
      "sept": 2792,
      "require": 2793,
      "binding": 2794,
      "onary": 2795,
      "contrast": 2796,
      "since": 2797,
      "ata": 2798,
      "ulder": 2799,
      "therefore": 2800,
      "mito": 2801,
      "placement": 2802,
      "amount": 2803,
      "possible": 2804,
      "Can": 2805,
      "ey": 2806,
      "Disease": 2807,
      "End": 2808,
      "follic": 2809,
      "conne": 2810,
      "olysis": 2811,
      "acidosis": 2812,
      "phyl": 2813,
      "palp": 2814,
      "junction": 2815,
      "ventil": 2816,
      "MI": 2817,
      "iasis": 2818,
      "vant": 2819,
      "metabolic": 2820,
      "drain": 2821,
      "rise": 2822,
      "attach": 2823,
      "sph": 2824,
      "ank": 2825,
      "MRI": 2826,
      "omen": 2827,
      "near": 2828,
      "repor": 2829,
      "anaes": 2830,
      "ciples": 2831,
      "assium": 2832,
      "Mar": 2833,
      "bility": 2834,
      "Poly": 2835,
      "alpha": 2836,
      "ureth": 2837,
      "hypeension": 2838,
      "taken": 2839,
      "mye": 2840,
      "nic": 2841,
      "contain": 2842,
      "evidence": 2843,
      "tar": 2844,
      "sud": 2845,
      "ximately": 2846,
      "estrogen": 2847,
      "fung": 2848,
      "65": 2849,
      "ea": 2850,
      "confir": 2851,
      "pas": 2852,
      "core": 2853,
      "hr": 2854,
      "Ba": 2855,
      "Thus": 2856,
      "sudden": 2857,
      "bra": 2858,
      "prefer": 2859,
      "burn": 2860,
      "____": 2861,
      "ding": 2862,
      "extrem": 2863,
      "ochem": 2864,
      "fibro": 2865,
      "hepat": 2866,
      "vit": 2867,
      "With": 2868,
      "adult": 2869,
      "infant": 2870,
      "nephro": 2871,
      "help": 2872,
      "wide": 2873,
      "ongue": 2874,
      "thorac": 2875,
      "aor": 2876,
      "ticul": 2877,
      "Immun": 2878,
      "ocardial": 2879,
      "keletal": 2880,
      "pup": 2881,
      "Dif": 2882,
      "utrition": 2883,
      "del": 2884,
      "inemia": 2885,
      "value": 2886,
      "5th": 2887,
      ".\"": 2888,
      "example": 2889,
      "IU": 2890,
      "discharge": 2891,
      "gestive": 2892,
      "knee": 2893,
      "grade": 2894,
      "prof": 2895,
      "department": 2896,
      "prin": 2897,
      "cranial": 2898,
      "reduc": 2899,
      "medications": 2900,
      "short": 2901,
      "Hum": 2902,
      "complications": 2903,
      "material": 2904,
      "Sh": 2905,
      "prob": 2906,
      "max": 2907,
      "increasing": 2908,
      "arth": 2909,
      "ased": 2910,
      "gins": 2911,
      "means": 2912,
      "adj": 2913,
      "tuberculosis": 2914,
      "coag": 2915,
      "Internal": 2916,
      "suc": 2917,
      "aray": 2918,
      "pseud": 2919,
      "abl": 2920,
      "PS": 2921,
      "ilic": 2922,
      "armac": 2923,
      "optic": 2924,
      "individuals": 2925,
      "fron": 2926,
      "maint": 2927,
      "enta": 2928,
      "cules": 2929,
      "sexual": 2930,
      "recommended": 2931,
      "Bl": 2932,
      "pressed": 2933,
      "endome": 2934,
      "teeth": 2935,
      "contact": 2936,
      "34": 2937,
      "ination": 2938,
      "tero": 2939,
      "iod": 2940,
      "otics": 2941,
      "gue": 2942,
      "lungs": 2943,
      "people": 2944,
      "initial": 2945,
      "aract": 2946,
      "diameter": 2947,
      "intestine": 2948,
      "23rd": 2949,
      "thelial": 2950,
      "energy": 2951,
      "ocular": 2952,
      "ences": 2953,
      "culture": 2954,
      "cos": 2955,
      "Infe": 2956,
      "PE": 2957,
      "Fib": 2958,
      "irst": 2959,
      "occal": 2960,
      "lens": 2961,
      "Oc": 2962,
      "phag": 2963,
      "media": 2964,
      "milk": 2965,
      "Not": 2966,
      "dig": 2967,
      "separ": 2968,
      "illness": 2969,
      "host": 2970,
      "ying": 2971,
      "han": 2972,
      "orsal": 2973,
      "you": 2974,
      "benign": 2975,
      "feel": 2976,
      "Lef": 2977,
      "undergo": 2978,
      "Inhib": 2979,
      "bind": 2980,
      "Tox": 2981,
      "neoplas": 2982,
      "ception": 2983,
      "mouth": 2984,
      "ophthal": 2985,
      "usea": 2986,
      "duration": 2987,
      "degree": 2988,
      "CSF": 2989,
      "perfor": 2990,
      "length": 2991,
      "lagen": 2992,
      "social": 2993,
      "morph": 2994,
      "Some": 2995,
      "Intra": 2996,
      "cholesterol": 2997,
      "band": 2998,
      "infants": 2999,
      "CO2": 3000,
      "every": 3001,
      "remain": 3002,
      "AID": 3003,
      "thma": 3004,
      "omegaly": 3005,
      "upt": 3006,
      "bones": 3007,
      "Also": 3008,
      "reduction": 3009,
      "infected": 3010,
      "eld": 3011,
      "sim": 3012,
      "clus": 3013,
      "shock": 3014,
      "typical": 3015,
      "infil": 3016,
      "molecules": 3017,
      "glyco": 3018,
      "amous": 3019,
      "irub": 3020,
      "headache": 3021,
      "diet": 3022,
      "Bar": 3023,
      "tachy": 3024,
      "unk": 3025,
      "glomerul": 3026,
      "gy": 3027,
      "Hemo": 3028,
      "izing": 3029,
      "organisms": 3030,
      "Stre": 3031,
      "irl": 3032,
      "tongue": 3033,
      "paralysis": 3034,
      "toid": 3035,
      "Tri": 3036,
      "expl": 3037,
      "accum": 3038,
      "HO": 3039,
      "Pseud": 3040,
      "topic": 3041,
      "20th": 3042,
      "unit": 3043,
      "asia": 3044,
      "sper": 3045,
      "Prin": 3046,
      "illus": 3047,
      "options": 3048,
      "prognosis": 3049,
      "determin": 3050,
      "mpan": 3051,
      "administration": 3052,
      "tained": 3053,
      "tility": 3054,
      "reach": 3055,
      "osal": 3056,
      "Left": 3057,
      "situ": 3058,
      "phyloc": 3059,
      "ophy": 3060,
      "generally": 3061,
      "pared": 3062,
      "GY": 3063,
      "plication": 3064,
      "cu": 3065,
      "acti": 3066,
      "tle": 3067,
      "sites": 3068,
      "shoulder": 3069,
      "cision": 3070,
      "erve": 3071,
      "dysfunction": 3072,
      "lipid": 3073,
      "-->": 3074,
      "maximum": 3075,
      "Sta": 3076,
      "Tub": 3077,
      "HB": 3078,
      "Causes": 3079,
      "pathology": 3080,
      "tw": 3081,
      "takes": 3082,
      "Right": 3083,
      "terone": 3084,
      "relax": 3085,
      "vior": 3086,
      "inten": 3087,
      "conjun": 3088,
      "rapidly": 3089,
      "cost": 3090,
      "directly": 3091,
      "Ess": 3092,
      "acy": 3093,
      "pelvic": 3094,
      "Sup": 3095,
      "hn": 3096,
      "utroph": 3097,
      "ENT": 3098,
      "cious": 3099,
      "consists": 3100,
      "ycin": 3101,
      "chor": 3102,
      "acetyl": 3103,
      "aneur": 3104,
      "jection": 3105,
      "32": 3106,
      "Sep": 3107,
      "extra": 3108,
      "RBC": 3109,
      "ching": 3110,
      "diffuse": 3111,
      "hood": 3112,
      "fill": 3113,
      "pancreatic": 3114,
      "Bro": 3115,
      "aucoma": 3116,
      "trasound": 3117,
      "Abs": 3118,
      "penia": 3119,
      "CoA": 3120,
      "avoid": 3121,
      "palsy": 3122,
      "Phen": 3123,
      "zo": 3124,
      "available": 3125,
      "transmission": 3126,
      "what": 3127,
      "vation": 3128,
      "otherapy": 3129,
      "decreases": 3130,
      "piratory": 3131,
      "Syndrome": 3132,
      "episodes": 3133,
      "oto": 3134,
      "diaph": 3135,
      "ibular": 3136,
      "ocyto": 3137,
      "etc": 3138,
      "aneurys": 3139,
      "interval": 3140,
      "Eds": 3141,
      "ime": 3142,
      "nose": 3143,
      "Pr": 3144,
      "standard": 3145,
      "lat": 3146,
      "kalemia": 3147,
      "otomy": 3148,
      "investigation": 3149,
      "Gly": 3150,
      "ket": 3151,
      "ulty": 3152,
      "biology": 3153,
      "joints": 3154,
      "erythro": 3155,
      "ends": 3156,
      "epid": 3157,
      "opa": 3158,
      "ocon": 3159,
      "But": 3160,
      "gan": 3161,
      "55": 3162,
      "litis": 3163,
      "indicates": 3164,
      "GI": 3165,
      "orrhea": 3166,
      "ingu": 3167,
      "app": 3168,
      "superficial": 3169,
      "ranial": 3170,
      "criteria": 3171,
      "branches": 3172,
      "orph": 3173,
      "Congenital": 3174,
      "inhibits": 3175,
      "vix": 3176,
      "paicular": 3177,
      "moid": 3178,
      "ovarian": 3179,
      "mL": 3180,
      "lled": 3181,
      "always": 3182,
      "Char": 3183,
      "extend": 3184,
      "girl": 3185,
      "retinal": 3186,
      "acity": 3187,
      "sme": 3188,
      "spont": 3189,
      "transplant": 3190,
      "Fr": 3191,
      "omes": 3192,
      "promin": 3193,
      "stones": 3194,
      "fur": 3195,
      "flo": 3196,
      "Pa": 3197,
      "pus": 3198,
      "ging": 3199,
      "First": 3200,
      "Lateral": 3201,
      "oderate": 3202,
      "Ery": 3203,
      "phylaxis": 3204,
      "More": 3205,
      "rectal": 3206,
      "defects": 3207,
      "evaluation": 3208,
      "umin": 3209,
      "primarily": 3210,
      "IgG": 3211,
      "MR": 3212,
      "sometimes": 3213,
      "incis": 3214,
      "another": 3215,
      "astric": 3216,
      "glycemia": 3217,
      "murmur": 3218,
      "spontaneous": 3219,
      "Sys": 3220,
      "poion": 3221,
      "experi": 3222,
      "iley": 3223,
      "reveal": 3224,
      "ventive": 3225,
      "March": 3226,
      "ood": 3227,
      "molar": 3228,
      "Gan": 3229,
      "ics": 3230,
      "bound": 3231,
      "nutrition": 3232,
      "inher": 3233,
      "baby": 3234,
      "necess": 3235,
      "coronary": 3236,
      "delay": 3237,
      "carbon": 3238,
      "source": 3239,
      "Small": 3240,
      "zed": 3241,
      "conscious": 3242,
      "resid": 3243,
      "reduce": 3244,
      "GF": 3245,
      "essential": 3246,
      "exer": 3247,
      "Liver": 3248,
      "plexus": 3249,
      "Def": 3250,
      "cross": 3251,
      "ded": 3252,
      "calcific": 3253,
      "DM": 3254,
      "Des": 3255,
      "Severe": 3256,
      "rupture": 3257,
      "CNS": 3258,
      "sat": 3259,
      "injection": 3260,
      "percent": 3261,
      "doses": 3262,
      "mellitus": 3263,
      "inguinal": 3264,
      "ings": 3265,
      "embr": 3266,
      "association": 3267,
      "output": 3268,
      "stimulation": 3269,
      "85": 3270,
      "ctor": 3271,
      "tol": 3272,
      "circulation": 3273,
      "Pain": 3274,
      "ctiv": 3275,
      "tain": 3276,
      "SA": 3277,
      "icardi": 3278,
      "wave": 3279,
      "smear": 3280,
      "leukemia": 3281,
      "vaccin": 3282,
      "close": 3283,
      "statements": 3284,
      "hydrogenase": 3285,
      "29": 3286,
      "pathic": 3287,
      "iii": 3288,
      "groups": 3289,
      "surround": 3290,
      "highly": 3291,
      "mmHg": 3292,
      "smooth": 3293,
      "gia": 3294,
      "contracep": 3295,
      "istry": 3296,
      "atase": 3297,
      "peptide": 3298,
      "ventilation": 3299,
      "ication": 3300,
      "\".": 3301,
      "cholin": 3302,
      "refers": 3303,
      "Tum": 3304,
      "reactions": 3305,
      "tria": 3306,
      "described": 3307,
      "seizures": 3308,
      "Mon": 3309,
      "prop": 3310,
      "genes": 3311,
      "39": 3312,
      "dilat": 3313,
      "sensory": 3314,
      "AP": 3315,
      "clusion": 3316,
      "onin": 3317,
      "fetus": 3318,
      "temporal": 3319,
      "approximately": 3320,
      "cataract": 3321,
      "moral": 3322,
      "CM": 3323,
      "omatous": 3324,
      "ITION": 3325,
      "platelet": 3326,
      "hes": 3327,
      "anat": 3328,
      "Surgery": 3329,
      "screening": 3330,
      "Bre": 3331,
      "tent": 3332,
      "Sal": 3333,
      "hyperplasia": 3334,
      "frag": 3335,
      "vide": 3336,
      "Total": 3337,
      "newborn": 3338,
      "LOGY": 3339,
      "behavior": 3340,
      "Min": 3341,
      "hernia": 3342,
      "distribution": 3343,
      "stress": 3344,
      "cline": 3345,
      "transpo": 3346,
      "icillin": 3347,
      "trim": 3348,
      "rig": 3349,
      "icul": 3350,
      "gestation": 3351,
      "resistant": 3352,
      "electro": 3353,
      "whe": 3354,
      "medium": 3355,
      "status": 3356,
      "hoea": 3357,
      "bilirub": 3358,
      "complain": 3359,
      "physiology": 3360,
      "component": 3361,
      "operative": 3362,
      "ischem": 3363,
      "prolonged": 3364,
      "lets": 3365,
      "One": 3366,
      "epider": 3367,
      "coli": 3368,
      "rophages": 3369,
      "fasc": 3370,
      "females": 3371,
      "bur": 3372,
      "ogenous": 3373,
      "maternal": 3374,
      "thoracic": 3375,
      "zing": 3376,
      "infarction": 3377,
      "frequent": 3378,
      "anth": 3379,
      "ubation": 3380,
      "movements": 3381,
      "alveolar": 3382,
      "ophren": 3383,
      "cod": 3384,
      "mig": 3385,
      "suffer": 3386,
      "arayan": 3387,
      "ocarcinoma": 3388,
      "tooth": 3389,
      "see": 3390,
      "undice": 3391,
      "know": 3392,
      "mitochondr": 3393,
      "idity": 3394,
      "supplied": 3395,
      "Drugs": 3396,
      "nausea": 3397,
      "depos": 3398,
      "opening": 3399,
      "vital": 3400,
      "quate": 3401,
      "gives": 3402,
      "mean": 3403,
      "healthy": 3404,
      "great": 3405,
      "vee": 3406,
      "linked": 3407,
      "Aden": 3408,
      "Option": 3409,
      "states": 3410,
      ".-": 3411,
      "fast": 3412,
      "Hydro": 3413,
      "acet": 3414,
      "HD": 3415,
      "color": 3416,
      "member": 3417,
      "Pe": 3418,
      "ties": 3419,
      "blas": 3420,
      "organs": 3421,
      "good": 3422,
      "Multiple": 3423,
      "analysis": 3424,
      "EDITION": 3425,
      "technique": 3426,
      "pitu": 3427,
      "prior": 3428,
      "strong": 3429,
      "sequence": 3430,
      "thrombosis": 3431,
      "Long": 3432,
      "Oral": 3433,
      "ened": 3434,
      "UR": 3435,
      "arthritis": 3436,
      "portion": 3437,
      "cytoplas": 3438,
      "reli": 3439,
      "femoral": 3440,
      "stool": 3441,
      "compression": 3442,
      "atosis": 3443,
      "antibiotics": 3444,
      "otor": 3445,
      "bu": 3446,
      "ventricle": 3447,
      "hence": 3448,
      "various": 3449,
      "ET": 3450,
      "fati": 3451,
      "pancreas": 3452,
      "contraindicated": 3453,
      "normally": 3454,
      "cise": 3455,
      "drin": 3456,
      "combination": 3457,
      "MO": 3458,
      "much": 3459,
      "deform": 3460,
      "occasion": 3461,
      "izophren": 3462,
      "vate": 3463,
      "ctious": 3464,
      "Glucose": 3465,
      "dehydrogenase": 3466,
      "involving": 3467,
      "earli": 3468,
      "SS": 3469,
      "false": 3470,
      "Cardiac": 3471,
      "lear": 3472,
      "Em": 3473,
      "underlying": 3474,
      "atrial": 3475,
      "eli": 3476,
      "iaz": 3477,
      "scar": 3478,
      "however": 3479,
      "divided": 3480,
      "Gra": 3481,
      "carcin": 3482,
      "anx": 3483,
      "almost": 3484,
      "lines": 3485,
      "stitial": 3486,
      "placenta": 3487,
      "otro": 3488,
      "phrine": 3489,
      "regul": 3490,
      "potassium": 3491,
      "rates": 3492,
      "presenting": 3493,
      "Del": 3494,
      "imen": 3495,
      "LDL": 3496,
      "tympan": 3497,
      "Principles": 3498,
      "alb": 3499,
      "physe": 3500,
      "pediatric": 3501,
      "sulf": 3502,
      "manifestations": 3503,
      "apeu": 3504,
      "Human": 3505,
      "osinoph": 3506,
      "Ganong": 3507,
      "motion": 3508,
      "Bailey": 3509,
      "onephritis": 3510,
      "ines": 3511,
      "Pneum": 3512,
      "Cell": 3513,
      "33": 3514,
      "kes": 3515,
      "load": 3516,
      "Reg": 3517,
      "Patient": 3518,
      "operation": 3519,
      "difficulty": 3520,
      "Rh": 3521,
      "trunk": 3522,
      "ptococcus": 3523,
      "stable": 3524,
      "collagen": 3525,
      "istic": 3526,
      "supr": 3527,
      "medull": 3528,
      "rarely": 3529,
      "gall": 3530,
      "land": 3531,
      "swe": 3532,
      "force": 3533,
      "ned": 3534,
      "cervix": 3535,
      "solution": 3536,
      "spir": 3537,
      "absorbed": 3538,
      "glaucoma": 3539,
      "choline": 3540,
      "oxidase": 3541,
      "Laboratory": 3542,
      "Gu": 3543,
      "anomal": 3544,
      "whereas": 3545,
      "Qu": 3546,
      "lev": 3547,
      "psis": 3548,
      "lea": 3549,
      "tenderness": 3550,
      "var": 3551,
      "uted": 3552,
      "colle": 3553,
      "Note": 3554,
      "aeries": 3555,
      "Max": 3556,
      "Class": 3557,
      "finger": 3558,
      "Peri": 3559,
      "preci": 3560,
      "safe": 3561,
      "intrac": 3562,
      "stetric": 3563,
      "Plas": 3564,
      "nat": 3565,
      "observed": 3566,
      "ocrine": 3567,
      "asthma": 3568,
      "tendon": 3569,
      "tip": 3570,
      "ECG": 3571,
      "irregular": 3572,
      "amus": 3573,
      "minor": 3574,
      "insic": 3575,
      "vaso": 3576,
      "limited": 3577,
      "far": 3578,
      "Mid": 3579,
      "ella": 3580,
      "corneal": 3581,
      "circum": 3582,
      "carotid": 3583,
      "mos": 3584,
      "atrophy": 3585,
      "retro": 3586,
      "recogn": 3587,
      "Examination": 3588,
      "icle": 3589,
      "anine": 3590,
      "anim": 3591,
      "larged": 3592,
      "lot": 3593,
      "BD": 3594,
      "pregnant": 3595,
      "logic": 3596,
      "Flu": 3597,
      ");": 3598,
      "**": 3599,
      "Two": 3600,
      "dias": 3601,
      "intravenous": 3602,
      "Follow": 3603,
      "led": 3604,
      "requires": 3605,
      "Cent": 3606,
      "extension": 3607,
      "play": 3608,
      "activated": 3609,
      "contrib": 3610,
      "iliary": 3611,
      "eyes": 3612,
      "Mac": 3613,
      "Sin": 3614,
      "pharyngeal": 3615,
      "Wil": 3616,
      "osus": 3617,
      "methyl": 3618,
      "pound": 3619,
      "ofib": 3620,
      "calcul": 3621,
      "rection": 3622,
      "pleen": 3623,
      "blue": 3624,
      "iary": 3625,
      "painful": 3626,
      "rema": 3627,
      "Hepatitis": 3628,
      "Superior": 3629,
      "affects": 3630,
      "ahritis": 3631,
      "izophrenia": 3632,
      "spine": 3633,
      "aries": 3634,
      "malignancy": 3635,
      "frequency": 3636,
      "Diabe": 3637,
      "ovascular": 3638,
      "Ma": 3639,
      "Infection": 3640,
      "lack": 3641,
      "....": 3642,
      "referred": 3643,
      "peritoneal": 3644,
      "repair": 3645,
      "Hep": 3646,
      "sia": 3647,
      "Ins": 3648,
      "Heal": 3649,
      "pituitary": 3650,
      "Stage": 3651,
      "pelvis": 3652,
      "diaphrag": 3653,
      "ches": 3654,
      "Chol": 3655,
      "System": 3656,
      "sympathetic": 3657,
      "India": 3658,
      "cate": 3659,
      "philis": 3660,
      "xylase": 3661,
      "iety": 3662,
      "46": 3663,
      "fist": 3664,
      "scler": 3665,
      "Features": 3666,
      "ety": 3667,
      "hearing": 3668,
      "Ro": 3669,
      "pose": 3670,
      "Sho": 3671,
      "fractures": 3672,
      "acqu": 3673,
      "Pgno": 3674,
      "Dys": 3675,
      "Child": 3676,
      "lymphocytes": 3677,
      "proper": 3678,
      "AV": 3679,
      "rheum": 3680,
      "inhal": 3681,
      "net": 3682,
      "fibres": 3683,
      "Br": 3684,
      "testing": 3685,
      "Because": 3686,
      "root": 3687,
      "producing": 3688,
      "chemotherapy": 3689,
      "erous": 3690,
      "distur": 3691,
      "ias": 3692,
      "resol": 3693,
      "uctive": 3694,
      "47": 3695,
      "atinine": 3696,
      "UT": 3697,
      "viruses": 3698,
      "extremities": 3699,
      "Der": 3700,
      "ided": 3701,
      "ocaine": 3702,
      "excessive": 3703,
      "Fal": 3704,
      "Phy": 3705,
      "stain": 3706,
      "recessive": 3707,
      "princi": 3708,
      "thyro": 3709,
      "necessary": 3710,
      "transmitted": 3711,
      "sensation": 3712,
      "Py": 3713,
      "spo": 3714,
      "ills": 3715,
      "arco": 3716,
      "bow": 3717,
      "sclerosis": 3718,
      "developing": 3719,
      "remains": 3720,
      "enum": 3721,
      "retard": 3722,
      "saliv": 3723,
      "logy": 3724,
      "forming": 3725,
      "medication": 3726,
      "pyl": 3727,
      "gonad": 3728,
      "Ed": 3729,
      "treat": 3730,
      "Nerve": 3731,
      "prost": 3732,
      "selective": 3733,
      "blockers": 3734,
      "feeding": 3735,
      "enteric": 3736,
      "++": 3737,
      "compan": 3738,
      "Throm": 3739,
      "phenomen": 3740,
      "reports": 3741,
      "Cer": 3742,
      "until": 3743,
      "sick": 3744,
      "survi": 3745,
      "Gi": 3746,
      "myocardial": 3747,
      "1000": 3748,
      "establ": 3749,
      "Therefore": 3750,
      "neutroph": 3751,
      "night": 3752,
      "metastasis": 3753,
      "Beta": 3754,
      "Abo": 3755,
      "NT": 3756,
      "semin": 3757,
      "asts": 3758,
      "planation": 3759,
      "quad": 3760,
      "matitis": 3761,
      "approach": 3762,
      "skull": 3763,
      "ann": 3764,
      "tachycardia": 3765,
      "yellow": 3766,
      "eno": 3767,
      "compared": 3768,
      "Phosph": 3769,
      "ostic": 3770,
      "peti": 3771,
      "Although": 3772,
      "ulcers": 3773,
      "aver": 3774,
      "respirations": 3775,
      "Bo": 3776,
      "thi": 3777,
      "uption": 3778,
      "atoid": 3779,
      "IP": 3780,
      "margin": 3781,
      "suggests": 3782,
      "Vol": 3783,
      "Vir": 3784,
      "skeletal": 3785,
      "sule": 3786,
      "Chlor": 3787,
      "trum": 3788,
      "injuries": 3789,
      "verte": 3790,
      "plastic": 3791,
      "ocytic": 3792,
      "inct": 3793,
      "500": 3794,
      "radiograph": 3795,
      "cule": 3796,
      "autosomal": 3797,
      "embolism": 3798,
      "dislocation": 3799,
      "fibrin": 3800,
      "inhibition": 3801,
      "graphy": 3802,
      "macrophages": 3803,
      "dorsal": 3804,
      "hold": 3805,
      "AM": 3806,
      "hom": 3807,
      "diabetic": 3808,
      "neurons": 3809,
      "olip": 3810,
      "18th": 3811,
      "ld": 3812,
      "dry": 3813,
      "better": 3814,
      "preferred": 3815,
      "ochemistry": 3816,
      "calcification": 3817,
      "Da": 3818,
      "dyst": 3819,
      "Histo": 3820,
      "turn": 3821,
      "tel": 3822,
      "concer": 3823,
      "Ure": 3824,
      "ferent": 3825,
      "give": 3826,
      "administered": 3827,
      "breathing": 3828,
      "dri": 3829,
      "prevention": 3830,
      "ossa": 3831,
      "ake": 3832,
      "CC": 3833,
      "Symptom": 3834,
      "Secondary": 3835,
      "reas": 3836,
      "predominant": 3837,
      "IgA": 3838,
      "catal": 3839,
      "species": 3840,
      "oryl": 3841,
      "ched": 3842,
      "oblastic": 3843,
      "apeutic": 3844,
      "Nit": 3845,
      "synthes": 3846,
      "conjunctiv": 3847,
      "truction": 3848,
      "hemolytic": 3849,
      "accid": 3850,
      "nuclei": 3851,
      "72": 3852,
      "Fact": 3853,
      "Usu": 3854,
      "distress": 3855,
      "sil": 3856,
      "rophic": 3857,
      "removed": 3858,
      "nodules": 3859,
      "icles": 3860,
      "oli": 3861,
      "exp": 3862,
      "NAD": 3863,
      "don": 3864,
      "Leuk": 3865,
      "zone": 3866,
      "traction": 3867,
      "IgM": 3868,
      "Bone": 3869,
      "paras": 3870,
      "ruvate": 3871,
      "adenoma": 3872,
      "jaundice": 3873,
      "mod": 3874,
      "isk": 3875,
      "name": 3876,
      "ilial": 3877,
      "rhosis": 3878,
      "table": 3879,
      "estim": 3880,
      "abil": 3881,
      "serious": 3882,
      "suspected": 3883,
      "aplas": 3884,
      "flexion": 3885,
      "mucosal": 3886,
      "25th": 3887,
      "fatigue": 3888,
      "return": 3889,
      "striction": 3890,
      "could": 3891,
      "muscular": 3892,
      "dilatation": 3893,
      "started": 3894,
      "probable": 3895,
      "him": 3896,
      "Pal": 3897,
      "dy": 3898,
      "usions": 3899,
      "agic": 3900,
      "ANS": 3901,
      "Microbiology": 3902,
      "mm3": 3903,
      "cysts": 3904,
      "costal": 3905,
      "focal": 3906,
      "2012": 3907,
      "exposed": 3908,
      "enlarge": 3909,
      "parent": 3910,
      "ao": 3911,
      "ark": 3912,
      "lapse": 3913,
      "controlled": 3914,
      "ode": 3915,
      "scap": 3916,
      "phosphatase": 3917,
      "Ace": 3918,
      "PO": 3919,
      "benef": 3920,
      "antic": 3921,
      "strand": 3922,
      "mediately": 3923,
      "narrow": 3924,
      "via": 3925,
      "Inferior": 3926,
      "andid": 3927,
      "Bacter": 3928,
      "full": 3929,
      "pun": 3930,
      "pancreatitis": 3931,
      "Am": 3932,
      "None": 3933,
      "chemical": 3934,
      "ocarditis": 3935,
      "gester": 3936,
      "120": 3937,
      "ensi": 3938,
      "omye": 3939,
      "slight": 3940,
      "follows": 3941,
      "Associ": 3942,
      "molecule": 3943,
      "aure": 3944,
      "ators": 3945,
      "cyan": 3946,
      "break": 3947,
      "Protein": 3948,
      "Bron": 3949,
      "mol": 3950,
      "Lar": 3951,
      "capacity": 3952,
      "SD": 3953,
      "asymptomatic": 3954,
      "ats": 3955,
      "relatively": 3956,
      "Character": 3957,
      "prominent": 3958,
      "capsule": 3959,
      "complement": 3960,
      "ik": 3961,
      "says": 3962,
      "upus": 3963,
      "detected": 3964,
      "removal": 3965,
      "just": 3966,
      "chro": 3967,
      "hands": 3968,
      "ilar": 3969,
      "noted": 3970,
      "hing": 3971,
      "raised": 3972,
      "trimester": 3973,
      "fossa": 3974,
      "tan": 3975,
      "restric": 3976,
      "stages": 3977,
      "Malign": 3978,
      "impair": 3979,
      "ANA": 3980,
      "editary": 3981,
      "functional": 3982,
      "disturb": 3983,
      "vascul": 3984,
      "err": 3985,
      "CP": 3986,
      "ultrasound": 3987,
      "deposition": 3988,
      "matous": 3989,
      "tism": 3990,
      "RS": 3991,
      "pla": 3992,
      "hind": 3993,
      "asse": 3994,
      "Early": 3995,
      "dl": 3996,
      "bers": 3997,
      "nail": 3998,
      "conjug": 3999,
      "epine": 4000,
      "enlarged": 4001,
      "terminal": 4002,
      "Symptoms": 4003,
      "onucle": 4004,
      "prophylaxis": 4005,
      "mandibular": 4006,
      "aud": 4007,
      "cro": 4008,
      "field": 4009,
      "neuropathy": 4010,
      "ams": 4011,
      "blind": 4012,
      "transverse": 4013,
      "AIDS": 4014,
      "acent": 4015,
      "phenomenon": 4016,
      "height": 4017,
      "fibr": 4018,
      "NOT": 4019,
      "cryst": 4020,
      "menstr": 4021,
      "altern": 4022,
      "femur": 4023,
      "pene": 4024,
      "rout": 4025,
      "dist": 4026,
      "posite": 4027,
      "strate": 4028,
      "difficult": 4029,
      "Fo": 4030,
      "adenopathy": 4031,
      "Abdom": 4032,
      "otide": 4033,
      "Insulin": 4034,
      "particular": 4035,
      "aspect": 4036,
      "taking": 4037,
      "infectious": 4038,
      "complains": 4039,
      "airway": 4040,
      "Te": 4041,
      "aoic": 4042,
      "nor": 4043,
      "obtained": 4044,
      "ureter": 4045,
      "cope": 4046,
      "secreted": 4047,
      "attack": 4048,
      "Sp": 4049,
      "although": 4050,
      "lipo": 4051,
      "content": 4052,
      "squamous": 4053,
      "reversible": 4054,
      "gesterone": 4055,
      "Skin": 4056,
      "accompan": 4057,
      "precipit": 4058,
      "cosis": 4059,
      "cence": 4060,
      "hypersensitivity": 4061,
      "marker": 4062,
      "abnormality": 4063,
      "psycho": 4064,
      "ocl": 4065,
      "substance": 4066,
      "Physi": 4067,
      "heat": 4068,
      "usual": 4069,
      "ushing": 4070,
      "halluc": 4071,
      "intake": 4072,
      "FE": 4073,
      "KDT": 4074,
      "potent": 4075,
      "ga": 4076,
      "idosis": 4077,
      "rich": 4078,
      "melan": 4079,
      "intracellular": 4080,
      "invasive": 4081,
      "sarcoma": 4082,
      "statement": 4083,
      "mutations": 4084,
      "childhood": 4085,
      "Following": 4086,
      "routine": 4087,
      "ably": 4088,
      "stren": 4089,
      "valence": 4090,
      "excretion": 4091,
      "lique": 4092,
      "power": 4093,
      "PAGE": 4094,
      "fascia": 4095,
      "Psy": 4096,
      "tery": 4097,
      "repeated": 4098,
      "cortic": 4099,
      "Best": 4100,
      "nas": 4101,
      "withdra": 4102,
      "Test": 4103,
      "innerv": 4104,
      "thrombo": 4105,
      ")-": 4106,
      "hur": 4107,
      "tember": 4108,
      "suggestive": 4109,
      "antigens": 4110,
      "aureus": 4111,
      "Lung": 4112,
      "eas": 4113,
      "SI": 4114,
      "colum": 4115,
      "provide": 4116,
      "aus": 4117,
      "laryngeal": 4118,
      "Sim": 4119,
      "colour": 4120,
      "asym": 4121,
      "September": 4122,
      "paicularly": 4123,
      "bilirubin": 4124,
      "uni": 4125,
      "Pap": 4126,
      "WHO": 4127,
      "predic": 4128,
      "membranes": 4129,
      "Usually": 4130,
      "monitor": 4131,
      "--------": 4132,
      "maxillary": 4133,
      "||": 4134,
      "disc": 4135,
      "constit": 4136,
      "150": 4137,
      "Of": 4138,
      "inse": 4139,
      "insuf": 4140,
      "cornea": 4141,
      "longer": 4142,
      "valent": 4143,
      "thanarayan": 4144,
      "inner": 4145,
      "rum": 4146,
      "basal": 4147,
      "Hal": 4148,
      "rid": 4149,
      "needed": 4150,
      "elimin": 4151,
      "polymer": 4152,
      "DR": 4153,
      "HA": 4154,
      "wise": 4155,
      "graft": 4156,
      "run": 4157,
      "spleen": 4158,
      "epig": 4159,
      "ient": 4160,
      "tid": 4161,
      "heo": 4162,
      "deformity": 4163,
      "sic": 4164,
      "cepti": 4165,
      "raz": 4166,
      "dilated": 4167,
      "Gre": 4168,
      "Ter": 4169,
      "umb": 4170,
      "compound": 4171,
      "gli": 4172,
      "Its": 4173,
      "aerial": 4174,
      "imaging": 4175,
      "laboratory": 4176,
      "manifestation": 4177,
      "meningitis": 4178,
      "cerebell": 4179,
      "pective": 4180,
      "special": 4181,
      "iliac": 4182,
      "IA": 4183,
      "bri": 4184,
      "double": 4185,
      "cancers": 4186,
      "make": 4187,
      "ensity": 4188,
      "uric": 4189,
      "hypotension": 4190,
      "nervous": 4191,
      "upon": 4192,
      "TR": 4193,
      "moderate": 4194,
      "omon": 4195,
      "viron": 4196,
      "Age": 4197,
      "MED": 4198,
      "asm": 4199,
      "Staphyloc": 4200,
      "Spe": 4201,
      "enza": 4202,
      "AND": 4203,
      "agonists": 4204,
      "ulnar": 4205,
      "tear": 4206,
      "Up": 4207,
      "expression": 4208,
      "acture": 4209,
      "retardation": 4210,
      "umbil": 4211,
      "endothelial": 4212,
      "300": 4213,
      "vy": 4214,
      "acchar": 4215,
      "Health": 4216,
      "ura": 4217,
      "CL": 4218,
      "diure": 4219,
      "involve": 4220,
      "units": 4221,
      "smoking": 4222,
      "values": 4223,
      "USG": 4224,
      "Act": 4225,
      "INE": 4226,
      "channels": 4227,
      "aneurysm": 4228,
      "provides": 4229,
      "resem": 4230,
      "imer": 4231,
      "obic": 4232,
      "tiology": 4233,
      "rotation": 4234,
      "degeneration": 4235,
      "aments": 4236,
      "inson": 4237,
      "Nel": 4238,
      "variable": 4239,
      "trate": 4240,
      "begins": 4241,
      "anesthesia": 4242,
      "Tuber": 4243,
      "arise": 4244,
      "ogram": 4245,
      "pericardi": 4246,
      "trex": 4247,
      "cks": 4248,
      "prostate": 4249,
      "classification": 4250,
      "hormones": 4251,
      "orbital": 4252,
      "stone": 4253,
      "adverse": 4254,
      "gressive": 4255,
      "enlargement": 4256,
      "HT": 4257,
      "wors": 4258,
      "Head": 4259,
      "OO": 4260,
      "score": 4261,
      "neural": 4262,
      "object": 4263,
      "oric": 4264,
      "conver": 4265,
      "trium": 4266,
      "tumours": 4267,
      "yrs": 4268,
      "problems": 4269,
      "ocytopenia": 4270,
      "excess": 4271,
      "identified": 4272,
      "itory": 4273,
      "cription": 4274,
      "incter": 4275,
      "papill": 4276,
      "Lower": 4277,
      "Hor": 4278,
      "va": 4279,
      "Cr": 4280,
      "Willi": 4281,
      "bacterium": 4282,
      "cytes": 4283,
      "immediately": 4284,
      "waves": 4285,
      "cou": 4286,
      "SLE": 4287,
      "chole": 4288,
      "pleural": 4289,
      "Breast": 4290,
      "oscopic": 4291,
      "trib": 4292,
      "prosy": 4293,
      "radial": 4294,
      "May": 4295,
      "still": 4296,
      "arises": 4297,
      "entation": 4298,
      "loop": 4299,
      "opamine": 4300,
      "actions": 4301,
      "duodenum": 4302,
      "gastrointestinal": 4303,
      "stant": 4304,
      "palate": 4305,
      "Bas": 4306,
      "completely": 4307,
      "cathe": 4308,
      "plement": 4309,
      "aps": 4310,
      "Meas": 4311,
      "detection": 4312,
      "persistent": 4313,
      "Abdominal": 4314,
      "Sign": 4315,
      "glob": 4316,
      "vagina": 4317,
      "Ve": 4318,
      "sample": 4319,
      "HLA": 4320,
      "yle": 4321,
      "isting": 4322,
      "elevation": 4323,
      "closure": 4324,
      "shif": 4325,
      "thought": 4326,
      "atine": 4327,
      "resection": 4328,
      "streptoc": 4329,
      "anxiety": 4330,
      "31": 4331,
      "ACT": 4332,
      "HS": 4333,
      "amyloid": 4334,
      "drainage": 4335,
      "uptake": 4336,
      "Over": 4337,
      "achie": 4338,
      "systolic": 4339,
      "H2": 4340,
      "aty": 4341,
      "cele": 4342,
      "imum": 4343,
      "consum": 4344,
      "continuous": 4345,
      "composed": 4346,
      "Ef": 4347,
      "PL": 4348,
      "classified": 4349,
      "56": 4350,
      "iso": 4351,
      "coagulation": 4352,
      "Men": 4353,
      "Sab": 4354,
      "Cyto": 4355,
      "stroke": 4356,
      "wing": 4357,
      "aortic": 4358,
      "foramen": 4359,
      "conve": 4360,
      "inous": 4361,
      "promo": 4362,
      "Loss": 4363,
      "opia": 4364,
      "lymphatic": 4365,
      "cail": 4366,
      "fingers": 4367,
      "abies": 4368,
      "phosphoryl": 4369,
      "Inc": 4370,
      "Cere": 4371,
      "distin": 4372,
      "fluor": 4373,
      "Good": 4374,
      "astic": 4375,
      "110": 4376,
      "components": 4377,
      "syphilis": 4378,
      "brown": 4379,
      "Nelson": 4380,
      "dermatitis": 4381,
      "dilation": 4382,
      "42": 4383,
      "malaria": 4384,
      "Tra": 4385,
      "dec": 4386,
      "Indic": 4387,
      "hrs": 4388,
      "strength": 4389,
      "MS": 4390,
      "fistula": 4391,
      "lid": 4392,
      "image": 4393,
      "delayed": 4394,
      "keto": 4395,
      "atives": 4396,
      "amni": 4397,
      "angio": 4398,
      "Management": 4399,
      "gm": 4400,
      "osclerosis": 4401,
      "Sing": 4402,
      "stor": 4403,
      "ared": 4404,
      "2010": 4405,
      "Toxic": 4406,
      "Fam": 4407,
      "uher": 4408,
      "cartil": 4409,
      "tubular": 4410,
      "information": 4411,
      "uous": 4412,
      "ostomy": 4413,
      "Cys": 4414,
      "olol": 4415,
      "mostly": 4416,
      "glycol": 4417,
      "Gram": 4418,
      "brach": 4419,
      "your": 4420,
      "alle": 4421,
      "rather": 4422,
      "parathyroidism": 4423,
      "Gran": 4424,
      "products": 4425,
      "immunog": 4426,
      "depends": 4427,
      "Cur": 4428,
      "PG": 4429,
      "cing": 4430,
      "aspir": 4431,
      "Intr": 4432,
      "methods": 4433,
      "hard": 4434,
      "occurring": 4435,
      "capillary": 4436,
      "interstitial": 4437,
      "fully": 4438,
      "impaired": 4439,
      "Jo": 4440,
      "urea": 4441,
      "10th": 4442,
      "Presence": 4443,
      "saturation": 4444,
      "fine": 4445,
      "antibiotic": 4446,
      "cirrhosis": 4447,
      "stetrics": 4448,
      "dip": 4449,
      "pling": 4450,
      "lost": 4451,
      "eds": 4452,
      "biliary": 4453,
      "myel": 4454,
      "interfer": 4455,
      "bacilli": 4456,
      "About": 4457,
      "2011": 4458,
      "suscepti": 4459,
      "limits": 4460,
      "Auto": 4461,
      "war": 4462,
      "accumulation": 4463,
      "zation": 4464,
      "ump": 4465,
      "occlusion": 4466,
      "cone": 4467,
      "commonest": 4468,
      "osing": 4469,
      "deposits": 4470,
      "helps": 4471,
      "recently": 4472,
      "binds": 4473,
      "glycogen": 4474,
      "Rel": 4475,
      "oblique": 4476,
      "variety": 4477,
      "arrhyth": 4478,
      "subsequ": 4479,
      "measured": 4480,
      "diaphragm": 4481,
      "Vis": 4482,
      "ham": 4483,
      "ediatric": 4484,
      "flux": 4485,
      "adequate": 4486,
      "urane": 4487,
      "conduction": 4488,
      "eosinoph": 4489,
      "theria": 4490,
      "Positive": 4491,
      "Cry": 4492,
      "excision": 4493,
      "destruction": 4494,
      "towards": 4495,
      "phthal": 4496,
      "According": 4497,
      "Meth": 4498,
      "thrombin": 4499,
      "home": 4500,
      "division": 4501,
      "antagonist": 4502,
      "aemia": 4503,
      "drop": 4504,
      "tt": 4505,
      "osarcoma": 4506,
      "conf": 4507,
      "Biochemistry": 4508,
      "triad": 4509,
      "standing": 4510,
      "Major": 4511,
      "relations": 4512,
      "measures": 4513,
      "little": 4514,
      "begin": 4515,
      "parents": 4516,
      "chloride": 4517,
      "WER": 4518,
      "Respiratory": 4519,
      "cold": 4520,
      "unts": 4521,
      "elbow": 4522,
      "Muscle": 4523,
      "alone": 4524,
      "Increase": 4525,
      "arium": 4526,
      "Alcohol": 4527,
      "transferase": 4528,
      "sounds": 4529,
      "toge": 4530,
      "behind": 4531,
      "Ben": 4532,
      "across": 4533,
      "lactic": 4534,
      "quadr": 4535,
      "Muc": 4536,
      "thre": 4537,
      "hyp": 4538,
      "ogly": 4539,
      "persons": 4540,
      "ME": 4541,
      "neu": 4542,
      "together": 4543,
      "basis": 4544,
      "magn": 4545,
      "median": 4546,
      "cyste": 4547,
      "actice": 4548,
      "NE": 4549,
      "bit": 4550,
      "esity": 4551,
      "intracranial": 4552,
      "ues": 4553,
      "ontal": 4554,
      "tegr": 4555,
      "rhyth": 4556,
      "Elect": 4557,
      "radical": 4558,
      "attached": 4559,
      "target": 4560,
      "Cre": 4561,
      "pox": 4562,
      "transfusion": 4563,
      "acial": 4564,
      "clinic": 4565,
      "proliferation": 4566,
      "agul": 4567,
      "curve": 4568,
      "passes": 4569,
      "DS": 4570,
      "mitral": 4571,
      "arteries": 4572,
      "simple": 4573,
      "sig": 4574,
      "staining": 4575,
      "fy": 4576,
      "vanced": 4577,
      "adjacent": 4578,
      "OOK": 4579,
      "toler": 4580,
      "program": 4581,
      "Pregn": 4582,
      "acks": 4583,
      "lobulin": 4584,
      "six": 4585,
      "colitis": 4586,
      "NF": 4587,
      "mittent": 4588,
      "Hence": 4589,
      "sha": 4590,
      "agar": 4591,
      "Inf": 4592,
      "Rheum": 4593,
      "Since": 4594,
      "B12": 4595,
      "gestion": 4596,
      "ovary": 4597,
      "LH": 4598,
      "TEX": 4599,
      "pnea": 4600,
      "spor": 4601,
      "haemorrh": 4602,
      "Anat": 4603,
      "Risk": 4604,
      "berg": 4605,
      "Yo": 4606,
      "Anan": 4607,
      "MEDIC": 4608,
      "ball": 4609,
      "pack": 4610,
      "Medial": 4611,
      "Metabol": 4612,
      "ganglion": 4613,
      "Deep": 4614,
      "Social": 4615,
      "tures": 4616,
      "relation": 4617,
      "supplies": 4618,
      "easily": 4619,
      ".)": 4620,
      "cending": 4621,
      "ire": 4622,
      "hout": 4623,
      "entire": 4624,
      "necro": 4625,
      "ANSWER": 4626,
      "gets": 4627,
      "Central": 4628,
      "Essential": 4629,
      "once": 4630,
      "Pers": 4631,
      "entia": 4632,
      "retina": 4633,
      "clinically": 4634,
      "stop": 4635,
      "generalized": 4636,
      "amate": 4637,
      "feet": 4638,
      "aste": 4639,
      "examin": 4640,
      "outer": 4641,
      "notic": 4642,
      "utaneous": 4643,
      "astin": 4644,
      "kines": 4645,
      "conversion": 4646,
      "inhibiting": 4647,
      "exercise": 4648,
      "data": 4649,
      "uve": 4650,
      "phoid": 4651,
      "nuclear": 4652,
      "KD": 4653,
      "occasionally": 4654,
      "44": 4655,
      "era": 4656,
      "immunity": 4657,
      "black": 4658,
      "Carcinoma": 4659,
      "confirm": 4660,
      "drom": 4661,
      "therapeutic": 4662,
      "combined": 4663,
      "community": 4664,
      "Cro": 4665,
      "unilateral": 4666,
      "sification": 4667,
      "recei": 4668,
      "pharmac": 4669,
      "coex": 4670,
      "otype": 4671,
      "osum": 4672,
      "mention": 4673,
      "acquired": 4674,
      "Psych": 4675,
      "blastoma": 4676,
      "hydroxy": 4677,
      "Systemic": 4678,
      "enomegaly": 4679,
      "yster": 4680,
      "spect": 4681,
      "Plate": 4682,
      "induc": 4683,
      "axillary": 4684,
      "Calcium": 4685,
      "Mi": 4686,
      "palpable": 4687,
      "osine": 4688,
      "amed": 4689,
      "Sul": 4690,
      "perme": 4691,
      "rosine": 4692,
      "Ble": 4693,
      "moality": 4694,
      "sphincter": 4695,
      "dermat": 4696,
      "ky": 4697,
      "kidneys": 4698,
      "HPV": 4699,
      "odg": 4700,
      "cine": 4701,
      "aline": 4702,
      "aspiration": 4703,
      "transmit": 4704,
      "Clos": 4705,
      "TA": 4706,
      "environ": 4707,
      "aeri": 4708,
      "manent": 4709,
      "Thyroid": 4710,
      "points": 4711,
      "PR": 4712,
      "ionic": 4713,
      "68": 4714,
      "sions": 4715,
      "functions": 4716,
      "fraction": 4717,
      "oxidation": 4718,
      "egg": 4719,
      "suffering": 4720,
      "aoa": 4721,
      "rous": 4722,
      "Bronch": 4723,
      "isation": 4724,
      "Dhing": 4725,
      "uish": 4726,
      "older": 4727,
      "respective": 4728,
      "aterally": 4729,
      "duodenal": 4730,
      "Diabetes": 4731,
      "impairment": 4732,
      "arbon": 4733,
      "intervention": 4734,
      "thalamus": 4735,
      "Sodium": 4736,
      "legs": 4737,
      "microscopy": 4738,
      "trin": 4739,
      "effusion": 4740,
      "floor": 4741,
      "dark": 4742,
      "corpus": 4743,
      "chromocy": 4744,
      "sided": 4745,
      "erus": 4746,
      "defic": 4747,
      "clot": 4748,
      "Schw": 4749,
      "colo": 4750,
      "Malignant": 4751,
      "67": 4752,
      "Due": 4753,
      "TP": 4754,
      "derly": 4755,
      "opor": 4756,
      "mucous": 4757,
      "embry": 4758,
      "gam": 4759,
      "ancies": 4760,
      "metr": 4761,
      "chool": 4762,
      "Peripheral": 4763,
      "Dhingra": 4764,
      "accur": 4765,
      "andom": 4766,
      "preser": 4767,
      "intact": 4768,
      "New": 4769,
      "rays": 4770,
      "lasts": 4771,
      "insufficiency": 4772,
      "uation": 4773,
      "adhes": 4774,
      "flat": 4775,
      "bably": 4776,
      "cts": 4777,
      "Lip": 4778,
      "Investig": 4779,
      "lymphadenopathy": 4780,
      "blocker": 4781,
      "rot": 4782,
      "ceain": 4783,
      "visible": 4784,
      "Contr": 4785,
      "affin": 4786,
      "pura": 4787,
      "dent": 4788,
      "phtheria": 4789,
      "broad": 4790,
      "neonatal": 4791,
      "quanti": 4792,
      "Exam": 4793,
      "forearm": 4794,
      "Hemat": 4795,
      "Ster": 4796,
      "constant": 4797,
      "53": 4798,
      "prepar": 4799,
      "released": 4800,
      "97": 4801,
      "Function": 4802,
      "TO": 4803,
      "Urine": 4804,
      "pite": 4805,
      "predis": 4806,
      "eps": 4807,
      "hurana": 4808,
      "SE": 4809,
      "iness": 4810,
      "schizophrenia": 4811,
      "Surgical": 4812,
      "pigmentation": 4813,
      "FSH": 4814,
      "T4": 4815,
      "top": 4816,
      "opi": 4817,
      "covered": 4818,
      "stem": 4819,
      "quin": 4820,
      "synthesized": 4821,
      ")#": 4822,
      "apop": 4823,
      "Organ": 4824,
      "Gene": 4825,
      "opposite": 4826,
      "center": 4827,
      "memory": 4828,
      "Down": 4829,
      "Upper": 4830,
      "Du": 4831,
      "equal": 4832,
      "bes": 4833,
      "oblastoma": 4834,
      "septum": 4835,
      "hai": 4836,
      "access": 4837,
      "productive": 4838,
      "otonin": 4839,
      "azine": 4840,
      "complaints": 4841,
      "Ep": 4842,
      "xation": 4843,
      "currently": 4844,
      "communic": 4845,
      "False": 4846,
      "CG": 4847,
      "Diseases": 4848,
      "route": 4849,
      "paial": 4850,
      "tensive": 4851,
      "sugar": 4852,
      "thickness": 4853,
      "Fat": 4854,
      "Main": 4855,
      "Explanation": 4856,
      "iatry": 4857,
      "Ker": 4858,
      "iston": 4859,
      "showed": 4860,
      "spec": 4861,
      "Less": 4862,
      "tory": 4863,
      "dified": 4864,
      "menopa": 4865,
      "extreme": 4866,
      "AF": 4867,
      "ici": 4868,
      "androgen": 4869,
      "physis": 4870,
      "reduces": 4871,
      "further": 4872,
      "David": 4873,
      "arach": 4874,
      "omyo": 4875,
      "testis": 4876,
      "steroids": 4877,
      "ovulation": 4878,
      "2013": 4879,
      "difference": 4880,
      "uscular": 4881,
      "toin": 4882,
      "ughout": 4883,
      "ectopic": 4884,
      "catheter": 4885,
      "expected": 4886,
      "Iron": 4887,
      "hyoid": 4888,
      ".(": 4889,
      "IAL": 4890,
      "Nucle": 4891,
      "reticul": 4892,
      "aret": 4893,
      "preventive": 4894,
      "anaesthesia": 4895,
      "Love": 4896,
      "hydration": 4897,
      "frontal": 4898,
      "glomerulonephritis": 4899,
      "thigh": 4900,
      "degrad": 4901,
      "fel": 4902,
      "Ananthanarayan": 4903,
      "symptomatic": 4904,
      "Ret": 4905,
      "fis": 4906,
      "tries": 4907,
      "uton": 4908,
      "density": 4909,
      "ductor": 4910,
      "survival": 4911,
      "hydrate": 4912,
      "gut": 4913,
      "mixed": 4914,
      "applied": 4915,
      "others": 4916,
      "swallow": 4917,
      "albumin": 4918,
      "Brain": 4919,
      "ju": 4920,
      "entric": 4921,
      "relationship": 4922,
      "quine": 4923,
      "liqu": 4924,
      "rier": 4925,
      "encephalitis": 4926,
      "Associated": 4927,
      "here": 4928,
      "severity": 4929,
      "humans": 4930,
      "General": 4931,
      "Hodg": 4932,
      "perfusion": 4933,
      "mechanisms": 4934,
      "fibrous": 4935,
      "arbonate": 4936,
      "direction": 4937,
      "diastolic": 4938,
      "Ox": 4939,
      "fund": 4940,
      "closed": 4941,
      "reactive": 4942,
      "itting": 4943,
      "19th": 4944,
      "processes": 4945,
      "represents": 4946,
      "live": 4947,
      "bronchial": 4948,
      "success": 4949,
      "cholinergic": 4950,
      "lysis": 4951,
      "dead": 4952,
      "disting": 4953,
      "omonas": 4954,
      "alanine": 4955,
      "follicular": 4956,
      "rix": 4957,
      "layers": 4958,
      "previously": 4959,
      "PAT": 4960,
      "replacement": 4961,
      "larger": 4962,
      "Pathology": 4963,
      "invasion": 4964,
      "trexate": 4965,
      "idium": 4966,
      "probably": 4967,
      "penicillin": 4968,
      "reducing": 4969,
      "heochromocy": 4970,
      "romuscular": 4971,
      "Fracture": 4972,
      "ceral": 4973,
      "degC": 4974,
      "additional": 4975,
      "urethral": 4976,
      "atrium": 4977,
      "tili": 4978,
      "neurological": 4979,
      "Fetal": 4980,
      "Large": 4981,
      "brid": 4982,
      "graph": 4983,
      "Glut": 4984,
      "omyelitis": 4985,
      "Ste": 4986,
      "utum": 4987,
      "key": 4988,
      "TEXTB": 4989,
      "Mes": 4990,
      "Pancre": 4991,
      "throughout": 4992,
      "cytoplasm": 4993,
      "GL": 4994,
      "urium": 4995,
      "Alpha": 4996,
      "affecting": 4997,
      "estion": 4998,
      "curs": 4999,
      "prevents": 5000,
      "Myco": 5001,
      "oporosis": 5002,
      "TEXTBOOK": 5003,
      ":*": 5004,
      "Angi": 5005,
      "minute": 5006,
      "granules": 5007,
      "kill": 5008,
      "irrit": 5009,
      "Recurrent": 5010,
      "Pharmac": 5011,
      "thotrexate": 5012,
      "lys": 5013,
      "spac": 5014,
      "Neph": 5015,
      "plications": 5016,
      "aryng": 5017,
      "menstrual": 5018,
      "Dist": 5019,
      "dental": 5020,
      "Harper": 5021,
      "blindness": 5022,
      "cycl": 5023,
      "Ghai": 5024,
      "characterised": 5025,
      "minimal": 5026,
      "Hemoglobin": 5027,
      "transplantation": 5028,
      "Sabiston": 5029,
      "lesser": 5030,
      "vocal": 5031,
      "problem": 5032,
      "labor": 5033,
      "neutrophils": 5034,
      "repo": 5035,
      "polyp": 5036,
      "humerus": 5037,
      "Cho": 5038,
      "Initi": 5039,
      "thelium": 5040,
      "CD4": 5041,
      "reflexes": 5042,
      "78": 5043,
      "Pl": 5044,
      "itic": 5045,
      "wrist": 5046,
      "lith": 5047,
      "omotor": 5048,
      "CO3": 5049,
      "particularly": 5050,
      "monitoring": 5051,
      "tubules": 5052,
      "extensive": 5053,
      "Vit": 5054,
      "depress": 5055,
      "aternal": 5056,
      "diaz": 5057,
      "green": 5058,
      "orax": 5059,
      "idase": 5060,
      "otherwise": 5061,
      "highest": 5062,
      "suppo": 5063,
      "retention": 5064,
      "clud": 5065,
      "syno": 5066,
      "Disorder": 5067,
      "ADH": 5068,
      "thickening": 5069,
      "maintain": 5070,
      "cla": 5071,
      "cailage": 5072,
      ":#": 5073,
      "immediate": 5074,
      "sputum": 5075,
      "labour": 5076,
      "vasculitis": 5077,
      "Amin": 5078,
      "uspid": 5079,
      "rectus": 5080,
      "Streptococcus": 5081,
      "Ha": 5082,
      "onium": 5083,
      "electron": 5084,
      "perforation": 5085,
      "usal": 5086,
      "AST": 5087,
      "alkaline": 5088,
      "arcoidosis": 5089,
      "gain": 5090,
      "osup": 5091,
      "accept": 5092,
      "emp": 5093,
      "ACE": 5094,
      "lous": 5095,
      "currence": 5096,
      "analges": 5097,
      "steroid": 5098,
      "transport": 5099,
      "differentiated": 5100,
      "bing": 5101,
      "kine": 5102,
      "enh": 5103,
      "atax": 5104,
      "mong": 5105,
      "iect": 5106,
      "AG": 5107,
      "intro": 5108,
      "tosterone": 5109,
      "setting": 5110,
      "tympanic": 5111,
      "spots": 5112,
      "glu": 5113,
      "otitis": 5114,
      "lieved": 5115,
      "liter": 5116,
      "lupus": 5117,
      "omatic": 5118,
      "perative": 5119,
      "fold": 5120,
      "perine": 5121,
      "pathological": 5122,
      "subcutaneous": 5123,
      "fixed": 5124,
      "incision": 5125,
      "tempt": 5126,
      "RB": 5127,
      "cytic": 5128,
      "induction": 5129,
      "soluble": 5130,
      "*.": 5131,
      "Ver": 5132,
      "apine": 5133,
      "17th": 5134,
      "IX": 5135,
      "consciousness": 5136,
      "ril": 5137,
      "izes": 5138,
      "glomerular": 5139,
      "58": 5140,
      "IPC": 5141,
      "tach": 5142,
      "vice": 5143,
      "injured": 5144,
      "molecular": 5145,
      "remia": 5146,
      "advant": 5147,
      "surrounding": 5148,
      "Staphylococcus": 5149,
      "oks": 5150,
      "creatinine": 5151,
      "calcemia": 5152,
      "painless": 5153,
      "Ec": 5154,
      "ato": 5155,
      "stret": 5156,
      "sity": 5157,
      "depolar": 5158,
      "product": 5159,
      "radio": 5160,
      "solid": 5161,
      "Ano": 5162,
      "shape": 5163,
      "dysplasia": 5164,
      "Abnormal": 5165,
      "Den": 5166,
      "heard": 5167,
      "ospor": 5168,
      "autoimmune": 5169,
      "fuher": 5170,
      "cry": 5171,
      "Pregnancy": 5172,
      "agg": 5173,
      "arterial": 5174,
      "fungal": 5175,
      "slightly": 5176,
      "CR": 5177,
      "Fig": 5178,
      "itance": 5179,
      "bel": 5180,
      "syndrom": 5181,
      "urgitation": 5182,
      "cartilage": 5183,
      "Hist": 5184,
      "rensic": 5185,
      "Cap": 5186,
      "inv": 5187,
      "basic": 5188,
      "substances": 5189,
      "Elev": 5190,
      "HI": 5191,
      "progesterone": 5192,
      "Review": 5193,
      "chapter": 5194,
      "copper": 5195,
      "tended": 5196,
      "49": 5197,
      "nu": 5198,
      "immuno": 5199,
      "healing": 5200,
      "reason": 5201,
      "lamy": 5202,
      "gestational": 5203,
      "migr": 5204,
      "Develop": 5205,
      "episode": 5206,
      "Absent": 5207,
      "tone": 5208,
      "Among": 5209,
      "Physiology": 5210,
      "Sur": 5211,
      "reous": 5212,
      "ofl": 5213,
      "cia": 5214,
      "dehy": 5215,
      "Tumor": 5216,
      "myeloma": 5217,
      "photo": 5218,
      "Direct": 5219,
      "accompanied": 5220,
      "teric": 5221,
      "phospholip": 5222,
      "limbs": 5223,
      "tensin": 5224,
      "glycer": 5225,
      "spr": 5226,
      "remark": 5227,
      "ilization": 5228,
      "platelets": 5229,
      "Cir": 5230,
      "Ophthal": 5231,
      "five": 5232,
      "erythema": 5233,
      "endocarditis": 5234,
      "characteristics": 5235,
      "pupil": 5236,
      "pressive": 5237,
      "ameth": 5238,
      "Plasma": 5239,
      "tality": 5240,
      "inic": 5241,
      "nous": 5242,
      "carb": 5243,
      "epile": 5244,
      "respond": 5245,
      "occup": 5246,
      "obstructive": 5247,
      "upto": 5248,
      "organic": 5249,
      "inherited": 5250,
      "Ir": 5251,
      "Sens": 5252,
      "T1": 5253,
      "father": 5254,
      "never": 5255,
      "elderly": 5256,
      "showing": 5257,
      "Mechanism": 5258,
      "encephalopathy": 5259,
      "Local": 5260,
      "oval": 5261,
      "tun": 5262,
      "Cat": 5263,
      "citation": 5264,
      "har": 5265,
      "thing": 5266,
      "read": 5267,
      "intermittent": 5268,
      "analog": 5269,
      "endometrial": 5270,
      "Uter": 5271,
      "aks": 5272,
      "apex": 5273,
      "rule": 5274,
      "pyruvate": 5275,
      "C3": 5276,
      "atum": 5277,
      "urethra": 5278,
      "UN": 5279,
      "ectomy": 5280,
      "anger": 5281,
      "lumbar": 5282,
      "(>": 5283,
      "prevalence": 5284,
      "salt": 5285,
      "events": 5286,
      "vary": 5287,
      "celer": 5288,
      "chains": 5289,
      "mann": 5290,
      "lapar": 5291,
      "EL": 5292,
      "lobul": 5293,
      "ocoic": 5294,
      "igaret": 5295,
      "ysacchar": 5296,
      "kel": 5297,
      "mineral": 5298,
      "isolated": 5299,
      "Dig": 5300,
      "Sti": 5301,
      "pall": 5302,
      "school": 5303,
      "ips": 5304,
      "provided": 5305,
      "larynx": 5306,
      "ices": 5307,
      "rectum": 5308,
      "asting": 5309,
      "fluids": 5310,
      "affinity": 5311,
      "according": 5312,
      "heavy": 5313,
      "earliest": 5314,
      "omyopathy": 5315,
      "IF": 5316,
      "fatal": 5317,
      "thumb": 5318,
      "peak": 5319,
      "chanical": 5320,
      "lactin": 5321,
      "Cervical": 5322,
      "SO": 5323,
      "noid": 5324,
      "termine": 5325,
      "omatosis": 5326,
      "endocrine": 5327,
      "rhin": 5328,
      "atres": 5329,
      "bru": 5330,
      "esterase": 5331,
      "vices": 5332,
      "check": 5333,
      "termed": 5334,
      "iae": 5335,
      "average": 5336,
      "Only": 5337,
      "cribed": 5338,
      "mucus": 5339,
      "categ": 5340,
      "IR": 5341,
      "ony": 5342,
      "anas": 5343,
      "reduct": 5344,
      "purpura": 5345,
      "cataly": 5346,
      "gap": 5347,
      "tick": 5348,
      "denies": 5349,
      "admitted": 5350,
      "ING": 5351,
      "Autosomal": 5352,
      "Dut": 5353,
      "mine": 5354,
      "ogn": 5355,
      "clusive": 5356,
      "loy": 5357,
      "tracy": 5358,
      "widely": 5359,
      "eminal": 5360,
      "intrinsic": 5361,
      "pinephrine": 5362,
      "?]": 5363,
      "DOC": 5364,
      "[?]": 5365,
      "sum": 5366,
      "alter": 5367,
      "conduct": 5368,
      "phagia": 5369,
      "jur": 5370,
      "phan": 5371,
      "Present": 5372,
      "ification": 5373,
      "storage": 5374,
      "Endo": 5375,
      "triangle": 5376,
      "trophy": 5377,
      "regions": 5378,
      "throat": 5379,
      "consistent": 5380,
      "tubule": 5381,
      "benz": 5382,
      "lb": 5383,
      "surve": 5384,
      "125": 5385,
      "mandible": 5386,
      "dehyde": 5387,
      "Ana": 5388,
      "bly": 5389,
      "added": 5390,
      "cyclo": 5391,
      "outside": 5392,
      "Ple": 5393,
      "cortex": 5394,
      "partic": 5395,
      "fibrill": 5396,
      "Bilateral": 5397,
      "dem": 5398,
      "convul": 5399,
      "glass": 5400,
      "tail": 5401,
      "proliferative": 5402,
      "Bur": 5403,
      "extent": 5404,
      "physiological": 5405,
      "assessment": 5406,
      "pital": 5407,
      "speci": 5408,
      "mesenteric": 5409,
      "remarkable": 5410,
      "inations": 5411,
      "cardiovascular": 5412,
      "stimulus": 5413,
      "Elevated": 5414,
      "leprosy": 5415,
      "Herpes": 5416,
      "improve": 5417,
      "Use": 5418,
      "initially": 5419,
      "IM": 5420,
      "poal": 5421,
      "rent": 5422,
      "Except": 5423,
      "revealed": 5424,
      "HCO3": 5425,
      "intermediate": 5426,
      "lecting": 5427,
      "edge": 5428,
      "trated": 5429,
      "carry": 5430,
      "indication": 5431,
      "walls": 5432,
      "compens": 5433,
      "Lac": 5434,
      "altered": 5435,
      "enters": 5436,
      "determine": 5437,
      "entials": 5438,
      "salivary": 5439,
      "atresia": 5440,
      "inst": 5441,
      "Appro": 5442,
      "keratin": 5443,
      "cher": 5444,
      "diver": 5445,
      "anaesthetic": 5446,
      "Davidson": 5447,
      "potenti": 5448,
      "aorta": 5449,
      "eating": 5450,
      "deriv": 5451,
      "needle": 5452,
      "procedures": 5453,
      "papillary": 5454,
      "alkalosis": 5455,
      "quadrant": 5456,
      "Epid": 5457,
      "bey": 5458,
      "measles": 5459,
      "counts": 5460,
      "erythematous": 5461,
      "From": 5462,
      "sec": 5463,
      "hypoglycemia": 5464,
      "ischemia": 5465,
      "exhib": 5466,
      "mitochondrial": 5467,
      "acetate": 5468,
      "ruption": 5469,
      "izontal": 5470,
      "Obstetrics": 5471,
      "alo": 5472,
      "ico": 5473,
      "centi": 5474,
      "intercostal": 5475,
      "facil": 5476,
      "integr": 5477,
      "olig": 5478,
      "complicated": 5479,
      "established": 5480,
      "Gastro": 5481,
      "IG": 5482,
      "hen": 5483,
      "ocys": 5484,
      "Retin": 5485,
      "extracellular": 5486,
      "Thromb": 5487,
      "dystrophy": 5488,
      "uveitis": 5489,
      "taneous": 5490,
      "vast": 5491,
      "speech": 5492,
      "nephropathy": 5493,
      "Granul": 5494,
      "ataxia": 5495,
      "Tem": 5496,
      "look": 5497,
      "worm": 5498,
      "classical": 5499,
      "auditory": 5500,
      "too": 5501,
      "ammon": 5502,
      "ologically": 5503,
      "brae": 5504,
      "coagul": 5505,
      "parotid": 5506,
      "whether": 5507,
      "umbilical": 5508,
      "permanent": 5509,
      "idectomy": 5510,
      "blocks": 5511,
      "firm": 5512,
      "stit": 5513,
      "testicular": 5514,
      "petitive": 5515,
      "advanced": 5516,
      "brady": 5517,
      "inside": 5518,
      "indicate": 5519,
      "pseudo": 5520,
      "Middle": 5521,
      "asympathetic": 5522,
      "noticed": 5523,
      "esthesia": 5524,
      "isted": 5525,
      "Cont": 5526,
      "avicular": 5527,
      "tons": 5528,
      "aerobic": 5529,
      "amounts": 5530,
      "HDL": 5531,
      "Mening": 5532,
      "mosis": 5533,
      "tenance": 5534,
      "Thi": 5535,
      "faces": 5536,
      "enced": 5537,
      "mias": 5538,
      "foreign": 5539,
      "germ": 5540,
      "burns": 5541,
      "reductase": 5542,
      "Op": 5543,
      "Chest": 5544,
      "athi": 5545,
      "bilaterally": 5546,
      "front": 5547,
      "predominantly": 5548,
      "withdrawal": 5549,
      "Hodgkin": 5550,
      "reflux": 5551,
      "attempt": 5552,
      "oses": 5553,
      "sense": 5554,
      "saline": 5555,
      "hematuria": 5556,
      "physema": 5557,
      "nature": 5558,
      "kerat": 5559,
      "farin": 5560,
      "Gal": 5561,
      "ising": 5562,
      "osome": 5563,
      "shunt": 5564,
      "describes": 5565,
      "determined": 5566,
      "Les": 5567,
      "unable": 5568,
      "implant": 5569,
      "Pot": 5570,
      "lamin": 5571,
      "tile": 5572,
      "morning": 5573,
      "ulate": 5574,
      "ococcal": 5575,
      "medulla": 5576,
      "Gy": 5577,
      "Gro": 5578,
      "foc": 5579,
      "touch": 5580,
      "hemorrhagic": 5581,
      "ischemic": 5582,
      "MEN": 5583,
      "TSH": 5584,
      "iform": 5585,
      "Adminis": 5586,
      "myelo": 5587,
      "antico": 5588,
      "aggreg": 5589,
      "syndromes": 5590,
      "epam": 5591,
      "ister": 5592,
      "adoles": 5593,
      "parie": 5594,
      "ground": 5595,
      "tracheal": 5596,
      "%,": 5597,
      "====": 5598,
      "OH": 5599,
      "def": 5600,
      "uncommon": 5601,
      "illa": 5602,
      "myelin": 5603,
      "eu": 5604,
      "Infl": 5605,
      "Anatomy": 5606,
      "how": 5607,
      "directed": 5608,
      "Maximum": 5609,
      "deficient": 5610,
      "arean": 5611,
      "Acid": 5612,
      "jejun": 5613,
      "ovirus": 5614,
      "apparent": 5615,
      "certain": 5616,
      "needs": 5617,
      "slowly": 5618,
      "GFR": 5619,
      "Invol": 5620,
      "illaries": 5621,
      "ference": 5622,
      "bling": 5623,
      "dosterone": 5624,
      "makes": 5625,
      "giving": 5626,
      "bony": 5627,
      "DA": 5628,
      "fri": 5629,
      "gel": 5630,
      "hypoxia": 5631,
      "Grow": 5632,
      "review": 5633,
      "oderma": 5634,
      "ofol": 5635,
      "expressed": 5636,
      "dissection": 5637,
      "afness": 5638,
      "achoma": 5639,
      "mmol": 5640,
      "pigmented": 5641,
      "excreted": 5642,
      "Vari": 5643,
      "pulses": 5644,
      "opharyngeal": 5645,
      "polymerase": 5646,
      "Dutta": 5647,
      "Mild": 5648,
      "bite": 5649,
      "ano": 5650,
      "extends": 5651,
      "400": 5652,
      "cas": 5653,
      "agland": 5654,
      "design": 5655,
      "stimulates": 5656,
      "nitrogen": 5657,
      "immunoglobulin": 5658,
      "viour": 5659,
      "Mc": 5660,
      "yton": 5661,
      "osse": 5662,
      "Enzy": 5663,
      "midline": 5664,
      "Pel": 5665,
      "eration": 5666,
      "demic": 5667,
      "bicarbonate": 5668,
      "arachnoid": 5669,
      "PP": 5670,
      "hypothyroidism": 5671,
      "flexor": 5672,
      "diarrhoea": 5673,
      "contraceptive": 5674,
      "Vag": 5675,
      "activities": 5676,
      "hydroxylase": 5677,
      "connective": 5678,
      "vative": 5679,
      "ades": 5680,
      "estro": 5681,
      "Commonest": 5682,
      "Val": 5683,
      "ises": 5684,
      "amines": 5685,
      "hemolysis": 5686,
      "shar": 5687,
      "carrier": 5688,
      "concerned": 5689,
      "Current": 5690,
      "heimer": 5691,
      "wid": 5692,
      "premature": 5693,
      "classic": 5694,
      "Diffuse": 5695,
      "avoided": 5696,
      "brachial": 5697,
      "aspirin": 5698,
      "Rare": 5699,
      "thermia": 5700,
      "centre": 5701,
      "Hepatic": 5702,
      "uctose": 5703,
      "obia": 5704,
      "personality": 5705,
      "41": 5706,
      "ytoin": 5707,
      "retinopathy": 5708,
      "anomalies": 5709,
      "caps": 5710,
      "mortality": 5711,
      "natural": 5712,
      "AMP": 5713,
      "Pediatric": 5714,
      "ented": 5715,
      "lling": 5716,
      "Any": 5717,
      "penis": 5718,
      "veebral": 5719,
      "Fl": 5720,
      "Ket": 5721,
      "Khurana": 5722,
      "dep": 5723,
      "pouch": 5724,
      "iodine": 5725,
      "Pol": 5726,
      "Spl": 5727,
      "died": 5728,
      "dimin": 5729,
      "Micros": 5730,
      "replaced": 5731,
      "entry": 5732,
      "Neur": 5733,
      "sinuses": 5734,
      "Oxy": 5735,
      "porphy": 5736,
      "ynae": 5737,
      "esium": 5738,
      "doctor": 5739,
      "Ten": 5740,
      "pathogen": 5741,
      "lumen": 5742,
      "parietal": 5743,
      "ord": 5744,
      "proto": 5745,
      "untary": 5746,
      "88": 5747,
      "Platelet": 5748,
      "beyond": 5749,
      "Aspir": 5750,
      "Suc": 5751,
      "atz": 5752,
      "anges": 5753,
      "ables": 5754,
      "regurgitation": 5755,
      "indicator": 5756,
      "localized": 5757,
      "massive": 5758,
      "Hall": 5759,
      "ptosis": 5760,
      "metal": 5761,
      "Repe": 5762,
      "Preventive": 5763,
      "offic": 5764,
      "dule": 5765,
      "adenocarcinoma": 5766,
      "aplasia": 5767,
      "Pi": 5768,
      "Water": 5769,
      "Acetyl": 5770,
      "icidal": 5771,
      "exud": 5772,
      "adren": 5773,
      "sheath": 5774,
      "chrome": 5775,
      "leuc": 5776,
      "dense": 5777,
      "concentrations": 5778,
      "markers": 5779,
      "Traum": 5780,
      "random": 5781,
      "eros": 5782,
      "nodule": 5783,
      "cerebellar": 5784,
      "onitis": 5785,
      "perg": 5786,
      "phenyl": 5787,
      "demonstrates": 5788,
      "itself": 5789,
      "+-": 5790,
      "Kap": 5791,
      "enhan": 5792,
      "infusion": 5793,
      "Lev": 5794,
      "oil": 5795,
      "spot": 5796,
      "Negative": 5797,
      "limiting": 5798,
      "Pages": 5799,
      "void": 5800,
      "While": 5801,
      "matter": 5802,
      "cham": 5803,
      "cade": 5804,
      "typh": 5805,
      "Factor": 5806,
      "assemia": 5807,
      "leak": 5808,
      "metastatic": 5809,
      "osteroids": 5810,
      "Os": 5811,
      "pathi": 5812,
      "Fever": 5813,
      "96": 5814,
      "pher": 5815,
      "prope": 5816,
      "seconds": 5817,
      "Ax": 5818,
      "Ke": 5819,
      "gold": 5820,
      "ocol": 5821,
      "iris": 5822,
      "Injur": 5823,
      "phylactic": 5824,
      "24th": 5825,
      "oconstriction": 5826,
      "punct": 5827,
      "76": 5828,
      "Tur": 5829,
      "possi": 5830,
      "subject": 5831,
      "seizure": 5832,
      "infiltration": 5833,
      "'.": 5834,
      "Rapid": 5835,
      "T3": 5836,
      "chlear": 5837,
      "Essentials": 5838,
      "vertebral": 5839,
      "detach": 5840,
      "emoral": 5841,
      "2009": 5842,
      "familial": 5843,
      "zyg": 5844,
      "CMV": 5845,
      "ipple": 5846,
      "Methyl": 5847,
      "recovery": 5848,
      "Mel": 5849,
      "Activ": 5850,
      "column": 5851,
      "stabil": 5852,
      "licis": 5853,
      "mitochondria": 5854,
      "distinct": 5855,
      "Fail": 5856,
      "HR": 5857,
      "atoma": 5858,
      "lox": 5859,
      "Complications": 5860,
      "Cancer": 5861,
      "wi": 5862,
      "utonomic": 5863,
      "Candid": 5864,
      "ciliary": 5865,
      "rac": 5866,
      "lycer": 5867,
      "Flex": 5868,
      "axial": 5869,
      "allows": 5870,
      "tibia": 5871,
      "subsequent": 5872,
      "ptery": 5873,
      "ange": 5874,
      "transl": 5875,
      "capillaries": 5876,
      "amycin": 5877,
      "filled": 5878,
      "Defici": 5879,
      "Dil": 5880,
      "genesis": 5881,
      "hort": 5882,
      "jugular": 5883,
      "heochromocytoma": 5884,
      "Penic": 5885,
      "tam": 5886,
      "ulmonary": 5887,
      "ocom": 5888,
      "appen": 5889,
      "oxin": 5890,
      "Sex": 5891,
      "cigaret": 5892,
      "hepar": 5893,
      "lirium": 5894,
      "llar": 5895,
      "effic": 5896,
      "elic": 5897,
      "Trich": 5898,
      "circulating": 5899,
      "mentioned": 5900,
      "etiology": 5901,
      "iosis": 5902,
      "idazole": 5903,
      "countries": 5904,
      "Struct": 5905,
      "own": 5906,
      "reverse": 5907,
      "Three": 5908,
      "cinyl": 5909,
      "vernous": 5910,
      "park": 5911,
      "aches": 5912,
      "ullary": 5913,
      "Inflamm": 5914,
      "orally": 5915,
      "conjunctivitis": 5916,
      "spaces": 5917,
      "ozo": 5918,
      "uci": 5919,
      "issu": 5920,
      "ready": 5921,
      "tral": 5922,
      "signal": 5923,
      "approved": 5924,
      "pneumoniae": 5925,
      "Ane": 5926,
      "Smo": 5927,
      "Ven": 5928,
      "eal": 5929,
      "sent": 5930,
      "thase": 5931,
      "tridium": 5932,
      "kets": 5933,
      "rheumatoid": 5934,
      "TE": 5935,
      "cogn": 5936,
      "obesity": 5937,
      "ascending": 5938,
      "dementia": 5939,
      "rof": 5940,
      "alateral": 5941,
      "toperative": 5942,
      "aceous": 5943,
      "Superficial": 5944,
      "residual": 5945,
      "Metabolic": 5946,
      "AK": 5947,
      "ba": 5948,
      "dopamine": 5949,
      "sl": 5950,
      "whole": 5951,
      "secrete": 5952,
      "thrombocytopenia": 5953,
      "Facial": 5954,
      "Rif": 5955,
      "inser": 5956,
      "othorax": 5957,
      "intense": 5958,
      "animal": 5959,
      "Children": 5960,
      "Specific": 5961,
      "Crohn": 5962,
      "Tes": 5963,
      "fibrillation": 5964,
      "arrest": 5965,
      "meta": 5966,
      "Lead": 5967,
      "macro": 5968,
      "feeling": 5969,
      "TI": 5970,
      "Comple": 5971,
      "arteri": 5972,
      "shift": 5973,
      "140": 5974,
      "Growth": 5975,
      "Mut": 5976,
      "urated": 5977,
      "defective": 5978,
      "move": 5979,
      "regulation": 5980,
      "pediatrics": 5981,
      "collection": 5982,
      "CY": 5983,
      "DE": 5984,
      "Gas": 5985,
      "SY": 5986,
      "VE": 5987,
      "quito": 5988,
      "making": 5989,
      "despite": 5990,
      "medullary": 5991,
      "C5": 5992,
      "till": 5993,
      "ichen": 5994,
      "cleft": 5995,
      "matrix": 5996,
      "unknown": 5997,
      "Extra": 5998,
      "balance": 5999,
      "threat": 6000,
      "osomal": 6001,
      "abuse": 6002,
      "motility": 6003,
      "calci": 6004,
      "included": 6005,
      "earlier": 6006,
      "diagnose": 6007,
      "arms": 6008,
      "placental": 6009,
      "aur": 6010,
      "causative": 6011,
      "blocking": 6012,
      "coneogenesis": 6013,
      "distinguish": 6014,
      "ingestion": 6015,
      "lytic": 6016,
      "cultation": 6017,
      "atid": 6018,
      "rimal": 6019,
      "extensor": 6020,
      "contractions": 6021,
      "susceptible": 6022,
      "recurrence": 6023,
      "anastom": 6024,
      "43": 6025,
      "confusion": 6026,
      "pollicis": 6027,
      "smaller": 6028,
      "longus": 6029,
      "rhythm": 6030,
      "VIII": 6031,
      "compar": 6032,
      "respiration": 6033,
      "Investigation": 6034,
      "Group": 6035,
      "chi": 6036,
      "vaccines": 6037,
      "emi": 6038,
      "27th": 6039,
      "diphtheria": 6040,
      "spi": 6041,
      "anesthetic": 6042,
      "linear": 6043,
      "HBV": 6044,
      "Absence": 6045,
      "haemorrhage": 6046,
      "ND": 6047,
      "inea": 6048,
      "plus": 6049,
      "world": 6050,
      "ponat": 6051,
      "damaged": 6052,
      "granuloma": 6053,
      "palpation": 6054,
      "AC": 6055,
      "Ray": 6056,
      "troph": 6057,
      "Under": 6058,
      "measurement": 6059,
      "carcinomas": 6060,
      "glycolysis": 6061,
      "Bleeding": 6062,
      "specimen": 6063,
      "jaw": 6064,
      "eng": 6065,
      "liac": 6066,
      "liance": 6067,
      "psin": 6068,
      "Kidne": 6069,
      "NH": 6070,
      "lis": 6071,
      "barrier": 6072,
      "acyl": 6073,
      "allergic": 6074,
      "influenza": 6075,
      "Intravenous": 6076,
      "66": 6077,
      "Gastric": 6078,
      "reabsorption": 6079,
      "substrate": 6080,
      "Endome": 6081,
      "CN": 6082,
      "Epi": 6083,
      "hex": 6084,
      "stiff": 6085,
      "majority": 6086,
      "differentiation": 6087,
      "septal": 6088,
      "feels": 6089,
      "Tuberculosis": 6090,
      "destro": 6091,
      "hCG": 6092,
      "tole": 6093,
      "intensity": 6094,
      "fragment": 6095,
      "ect": 6096,
      "natal": 6097,
      "seem": 6098,
      "angina": 6099,
      "spasm": 6100,
      "Remember": 6101,
      "ampic": 6102,
      "gence": 6103,
      "12th": 6104,
      "250": 6105,
      "cords": 6106,
      "modi": 6107,
      "coic": 6108,
      "External": 6109,
      "granulomatous": 6110,
      "sperm": 6111,
      "Imp": 6112,
      "VII": 6113,
      "irr": 6114,
      "dermal": 6115,
      "pale": 6116,
      "parathyroid": 6117,
      "gross": 6118,
      "warm": 6119,
      "aminated": 6120,
      "tonic": 6121,
      "odon": 6122,
      "tends": 6123,
      "proteinuria": 6124,
      "brile": 6125,
      "Failure": 6126,
      "130": 6127,
      "umps": 6128,
      "ames": 6129,
      "Para": 6130,
      "mix": 6131,
      "neonate": 6132,
      "iker": 6133,
      "topical": 6134,
      "acar": 6135,
      "Complete": 6136,
      "Mas": 6137,
      "UL": 6138,
      "cation": 6139,
      "igus": 6140,
      "milli": 6141,
      "segments": 6142,
      "scale": 6143,
      "ganglia": 6144,
      "ankle": 6145,
      "rical": 6146,
      "omical": 6147,
      "weigh": 6148,
      "outcome": 6149,
      "diffusion": 6150,
      "complexes": 6151,
      "meric": 6152,
      "traumatic": 6153,
      "confirmed": 6154,
      "psychotic": 6155,
      "Deficiency": 6156,
      "prom": 6157,
      "anging": 6158,
      "thereby": 6159,
      "attacks": 6160,
      "tibular": 6161,
      "lamydia": 6162,
      "GB": 6163,
      "protection": 6164,
      "bronchi": 6165,
      "spher": 6166,
      "represent": 6167,
      "itable": 6168,
      "induce": 6169,
      "Urin": 6170,
      "yi": 6171,
      "deafness": 6172,
      "tetan": 6173,
      "regimen": 6174,
      "consist": 6175,
      "Metast": 6176,
      "relaxation": 6177,
      "animals": 6178,
      "bial": 6179,
      "partial": 6180,
      "ulent": 6181,
      "spectrum": 6182,
      "VC": 6183,
      "tron": 6184,
      "amb": 6185,
      "utral": 6186,
      "carried": 6187,
      "Basic": 6188,
      "Top": 6189,
      "occipital": 6190,
      "Brown": 6191,
      "ACTH": 6192,
      "MHC": 6193,
      "Tro": 6194,
      "21st": 6195,
      "heparin": 6196,
      "bot": 6197,
      "orrhoea": 6198,
      "rheumatic": 6199,
      "principle": 6200,
      "hyster": 6201,
      "ories": 6202,
      "surge": 6203,
      "plicated": 6204,
      "surfaces": 6205,
      "serotonin": 6206,
      "polyps": 6207,
      "behaviour": 6208,
      "Bacterial": 6209,
      "EB": 6210,
      "Wor": 6211,
      "spar": 6212,
      "zes": 6213,
      "pros": 6214,
      "strains": 6215,
      "testosterone": 6216,
      "Alz": 6217,
      "cardiomyopathy": 6218,
      "metastases": 6219,
      "differentiate": 6220,
      "hallucinations": 6221,
      "opathic": 6222,
      "plane": 6223,
      "venile": 6224,
      "elective": 6225,
      "ATION": 6226,
      "secretions": 6227,
      "distance": 6228,
      "Bul": 6229,
      "die": 6230,
      "Median": 6231,
      "arising": 6232,
      "anatomy": 6233,
      "menopausal": 6234,
      "ositis": 6235,
      "microscopic": 6236,
      "repoed": 6237,
      "Ah": 6238,
      "poc": 6239,
      "ria": 6240,
      "correspon": 6241,
      "sepsis": 6242,
      "mechanical": 6243,
      "mood": 6244,
      "pressin": 6245,
      "COLOGY": 6246,
      "Weight": 6247,
      "falls": 6248,
      "Volume": 6249,
      "neuromuscular": 6250,
      "Active": 6251,
      "Used": 6252,
      "promis": 6253,
      "synthase": 6254,
      "duced": 6255,
      "minimum": 6256,
      "Characteristic": 6257,
      "diuretics": 6258,
      "apoptosis": 6259,
      "anticoagul": 6260,
      "59": 6261,
      "BB": 6262,
      "Bran": 6263,
      "GAB": 6264,
      "tyrosine": 6265,
      "Chrom": 6266,
      "herni": 6267,
      "horizontal": 6268,
      "sampling": 6269,
      "atzung": 6270,
      "74": 6271,
      "bs": 6272,
      "folds": 6273,
      "margins": 6274,
      "parenchy": 6275,
      "atypical": 6276,
      "isch": 6277,
      "Single": 6278,
      "deple": 6279,
      "constric": 6280,
      "Hea": 6281,
      "phalan": 6282,
      "filling": 6283,
      "mam": 6284,
      "might": 6285,
      "mology": 6286,
      "aly": 6287,
      "quality": 6288,
      "reser": 6289,
      "illance": 6290,
      "struction": 6291,
      "herpes": 6292,
      "variant": 6293,
      "Dermat": 6294,
      "chance": 6295,
      "unremarkable": 6296,
      "resus": 6297,
      "mode": 6298,
      "thanol": 6299,
      "electroly": 6300,
      "Urinary": 6301,
      "mography": 6302,
      "clamp": 6303,
      "transient": 6304,
      "Diagnostic": 6305,
      "pump": 6306,
      "feed": 6307,
      "angular": 6308,
      "ptophan": 6309,
      "consumption": 6310,
      "centile": 6311,
      "Eso": 6312,
      "ken": 6313,
      "expect": 6314,
      "parts": 6315,
      "parasympathetic": 6316,
      "epidermal": 6317,
      "exce": 6318,
      "giant": 6319,
      "complaining": 6320,
      "sweating": 6321,
      "disturbances": 6322,
      "A2": 6323,
      "Ps": 6324,
      "belong": 6325,
      "Est": 6326,
      "Gon": 6327,
      "Maternal": 6328,
      "rub": 6329,
      "formin": 6330,
      "angitis": 6331,
      "systems": 6332,
      "Sym": 6333,
      "adrenergic": 6334,
      "Sha": 6335,
      "abo": 6336,
      "stained": 6337,
      "22nd": 6338,
      "Thyro": 6339,
      "compounds": 6340,
      "cros": 6341,
      "iet": 6342,
      "omin": 6343,
      "itud": 6344,
      "propoion": 6345,
      "veness": 6346,
      "sun": 6347,
      "coming": 6348,
      "words": 6349,
      "deficit": 6350,
      "splenic": 6351,
      "staphyloc": 6352,
      "vitreous": 6353,
      "tizing": 6354,
      "iatic": 6355,
      "hereditary": 6356,
      "radiotherapy": 6357,
      "continued": 6358,
      "vaccination": 6359,
      "Each": 6360,
      "olid": 6361,
      "olateral": 6362,
      "resor": 6363,
      "thenia": 6364,
      "respectively": 6365,
      "PAR": 6366,
      "amel": 6367,
      "resh": 6368,
      "constip": 6369,
      "IgE": 6370,
      "alternative": 6371,
      "globulin": 6372,
      "sharp": 6373,
      "\",": 6374,
      "S2": 6375,
      "WBC": 6376,
      "cytos": 6377,
      "clearance": 6378,
      "sickle": 6379,
      "Cystic": 6380,
      "ected": 6381,
      "ls": 6382,
      "tite": 6383,
      "V1": 6384,
      "rul": 6385,
      "utili": 6386,
      "actin": 6387,
      "strain": 6388,
      "spontaneously": 6389,
      "physeal": 6390,
      "accident": 6391,
      "facilit": 6392,
      "69": 6393,
      "Benz": 6394,
      "papul": 6395,
      "tomas": 6396,
      "odyn": 6397,
      "stimulating": 6398,
      "sufficient": 6399,
      "neoplasm": 6400,
      "FA": 6401,
      "Optic": 6402,
      "umab": 6403,
      "Injury": 6404,
      "National": 6405,
      "valves": 6406,
      "oidal": 6407,
      "ileum": 6408,
      "Ca2": 6409,
      "xylation": 6410,
      "conjugated": 6411,
      "scr": 6412,
      "ocyst": 6413,
      "Mean": 6414,
      "Ulcer": 6415,
      "inheritance": 6416,
      "Air": 6417,
      "reci": 6418,
      "ried": 6419,
      "Clostridium": 6420,
      "environment": 6421,
      "kary": 6422,
      "pube": 6423,
      "lined": 6424,
      "worse": 6425,
      "depending": 6426,
      "passing": 6427,
      "alveoli": 6428,
      "Inhibition": 6429,
      "cyanosis": 6430,
      "error": 6431,
      "RH": 6432,
      "inability": 6433,
      "manual": 6434,
      "infiltr": 6435,
      "benefit": 6436,
      "sess": 6437,
      "wind": 6438,
      "orus": 6439,
      "definitive": 6440,
      "tibial": 6441,
      "degradation": 6442,
      "Americ": 6443,
      "erb": 6444,
      "ora": 6445,
      "instrum": 6446,
      "Williams": 6447,
      "ipsilateral": 6448,
      "malnutrition": 6449,
      "vesicles": 6450,
      "blasts": 6451,
      "pathways": 6452,
      "Ventric": 6453,
      "cure": 6454,
      "ilia": 6455,
      "assay": 6456,
      "contents": 6457,
      "servative": 6458,
      "intubation": 6459,
      "Hereditary": 6460,
      "RBCs": 6461,
      "ALT": 6462,
      "Adrenal": 6463,
      "rigidity": 6464,
      "cytoplasmic": 6465,
      "Squ": 6466,
      "comas": 6467,
      "specificity": 6468,
      "chromosomes": 6469,
      "came": 6470,
      "acil": 6471,
      "agglut": 6472,
      "ococcus": 6473,
      "prolapse": 6474,
      "static": 6475,
      "Hyp": 6476,
      "thromycin": 6477,
      "ALL": 6478,
      "lingual": 6479,
      "undergoes": 6480,
      "Ni": 6481,
      "UE": 6482,
      "mn": 6483,
      "olute": 6484,
      "decreasing": 6485,
      "impa": 6486,
      "efficient": 6487,
      "ponatremia": 6488,
      "cid": 6489,
      "gradi": 6490,
      "garis": 6491,
      "ubic": 6492,
      "omycin": 6493,
      "expans": 6494,
      "prehen": 6495,
      "synap": 6496,
      "explained": 6497,
      "HBs": 6498,
      "percentage": 6499,
      "Eg": 6500,
      "descending": 6501,
      "osteoporosis": 6502,
      "Pancreatic": 6503,
      "Alzheimer": 6504,
      "fically": 6505,
      "stern": 6506,
      "ined": 6507,
      "dialysis": 6508,
      "stored": 6509,
      "Erythro": 6510,
      "scapula": 6511,
      "Stimul": 6512,
      "Clas": 6513,
      "aggressive": 6514,
      "unting": 6515,
      "embran": 6516,
      "Phase": 6517,
      "significantly": 6518,
      "elastic": 6519,
      "ocalcemia": 6520,
      "basement": 6521,
      "plaques": 6522,
      "sphen": 6523,
      "visit": 6524,
      "Seen": 6525,
      "Secre": 6526,
      "characteristically": 6527,
      "filtration": 6528,
      "ritic": 6529,
      "endothelium": 6530,
      "tidine": 6531,
      "GABA": 6532,
      "ras": 6533,
      "attention": 6534,
      "aster": 6535,
      "metric": 6536,
      "cot": 6537,
      "phalangeal": 6538,
      "64": 6539,
      "abund": 6540,
      "percentile": 6541,
      "megal": 6542,
      "Prolonged": 6543,
      "LDH": 6544,
      "bles": 6545,
      "veget": 6546,
      "restor": 6547,
      "anaemia": 6548,
      "cystitis": 6549,
      "Rheumatoid": 6550,
      "preparation": 6551,
      "VI": 6552,
      "away": 6553,
      "posing": 6554,
      "numerous": 6555,
      "Glyco": 6556,
      "reliable": 6557,
      "otropic": 6558,
      "oclonal": 6559,
      "rough": 6560,
      "travel": 6561,
      "fixation": 6562,
      "prognostic": 6563,
      "Apo": 6564,
      "empt": 6565,
      "morb": 6566,
      "permeability": 6567,
      "Dep": 6568,
      "Idi": 6569,
      "bital": 6570,
      "fan": 6571,
      "lute": 6572,
      "already": 6573,
      "osomes": 6574,
      "union": 6575,
      "meatus": 6576,
      "whose": 6577,
      "managed": 6578,
      "laser": 6579,
      "Types": 6580,
      "mastoid": 6581,
      "62": 6582,
      "dial": 6583,
      "Hypeen": 6584,
      "ctival": 6585,
      "opioid": 6586,
      "omorph": 6587,
      "dive": 6588,
      "prur": 6589,
      "absolute": 6590,
      "ographic": 6591,
      "Indications": 6592,
      "UV": 6593,
      "law": 6594,
      "sides": 6595,
      "idio": 6596,
      "inspiration": 6597,
      "practice": 6598,
      "maintenance": 6599,
      "sulph": 6600,
      "constipation": 6601,
      "GN": 6602,
      "proportion": 6603,
      "White": 6604,
      "180": 6605,
      "angiography": 6606,
      "demonstrated": 6607,
      "font": 6608,
      "trem": 6609,
      "appetite": 6610,
      "senic": 6611,
      "Measles": 6612,
      "neuron": 6613,
      "pet": 6614,
      "hype": 6615,
      "hepato": 6616,
      "Erythe": 6617,
      "anomaly": 6618,
      "progression": 6619,
      "EG": 6620,
      "Eth": 6621,
      "SRB": 6622,
      "Ves": 6623,
      "ius": 6624,
      "udevan": 6625,
      "dietary": 6626,
      "enhance": 6627,
      "tia": 6628,
      "abor": 6629,
      "pulp": 6630,
      "othane": 6631,
      "experience": 6632,
      "Wilson": 6633,
      "felt": 6634,
      "(<": 6635,
      "bud": 6636,
      "orch": 6637,
      "suture": 6638,
      "motic": 6639,
      "spin": 6640,
      "supplement": 6641,
      "counter": 6642,
      "follicles": 6643,
      "Cu": 6644,
      "VT": 6645,
      "abduction": 6646,
      "hypothalamus": 6647,
      "Forensic": 6648,
      "arding": 6649,
      "lessness": 6650,
      "developmental": 6651,
      "clampsia": 6652,
      "=\"": 6653,
      "BR": 6654,
      "modified": 6655,
      "stri": 6656,
      "opharynx": 6657,
      "amoe": 6658,
      "Vasudevan": 6659,
      "efficacy": 6660,
      "Kidney": 6661,
      "02": 6662,
      "Action": 6663,
      "ffer": 6664,
      "atro": 6665,
      "atten": 6666,
      "emphysema": 6667,
      "transcription": 6668,
      "elds": 6669,
      "penic": 6670,
      "pubic": 6671,
      "febrile": 6672,
      "ionine": 6673,
      "bias": 6674,
      "auscultation": 6675,
      "52": 6676,
      "asked": 6677,
      "chondro": 6678,
      "alcoholic": 6679,
      "orbit": 6680,
      "57": 6681,
      "itude": 6682,
      "sures": 6683,
      "Enter": 6684,
      "pink": 6685,
      "amenorrhea": 6686,
      "Pseudomonas": 6687,
      "epidemic": 6688,
      "phobia": 6689,
      "blast": 6690,
      "Nephro": 6691,
      "chron": 6692,
      "ometry": 6693,
      "endometrium": 6694,
      "comycin": 6695,
      "find": 6696,
      "thar": 6697,
      "actose": 6698,
      "inste": 6699,
      "changed": 6700,
      "recognized": 6701,
      "Examples": 6702,
      "extremely": 6703,
      "did": 6704,
      "thetics": 6705,
      "pecia": 6706,
      "wet": 6707,
      "visceral": 6708,
      "astinum": 6709,
      "600": 6710,
      "buc": 6711,
      "dor": 6712,
      "discom": 6713,
      "spond": 6714,
      "guide": 6715,
      "Anemia": 6716,
      "Num": 6717,
      "odiaz": 6718,
      "septic": 6719,
      "members": 6720,
      "penetr": 6721,
      "Pur": 6722,
      "emin": 6723,
      "crystals": 6724,
      "elimination": 6725,
      "Cha": 6726,
      "Many": 6727,
      "xic": 6728,
      "oresis": 6729,
      "dyspnea": 6730,
      "PTH": 6731,
      "passive": 6732,
      "ophosph": 6733,
      "vised": 6734,
      "ivac": 6735,
      "oquine": 6736,
      "independent": 6737,
      "onco": 6738,
      "acia": 6739,
      "emph": 6740,
      "fertility": 6741,
      "Barret": 6742,
      "extended": 6743,
      "smell": 6744,
      "house": 6745,
      "ventral": 6746,
      "lipase": 6747,
      "Corneal": 6748,
      "repeat": 6749,
      "ochemical": 6750,
      "detachment": 6751,
      "Amy": 6752,
      "urity": 6753,
      "receive": 6754,
      "helpful": 6755,
      "BDC": 6756,
      "92": 6757,
      "Mental": 6758,
      "mits": 6759,
      "isten": 6760,
      "plegia": 6761,
      "gait": 6762,
      "Disorders": 6763,
      "Bac": 6764,
      "gent": 6765,
      "lady": 6766,
      "prol": 6767,
      "adox": 6768,
      "inhibited": 6769,
      "Reduced": 6770,
      "Amo": 6771,
      "Iso": 6772,
      "denti": 6773,
      "acro": 6774,
      "picture": 6775,
      "PCR": 6776,
      "cholinesterase": 6777,
      "stools": 6778,
      "Hormon": 6779,
      "chamber": 6780,
      "Amp": 6781,
      "Bu": 6782,
      "devi": 6783,
      "protective": 6784,
      "lining": 6785,
      "Duod": 6786,
      "El": 6787,
      "tium": 6788,
      "atch": 6789,
      "ollen": 6790,
      "apar": 6791,
      "plays": 6792,
      "Decrease": 6793,
      "Alkal": 6794,
      "competitive": 6795,
      "intercourse": 6796,
      "Neon": 6797,
      "olemia": 6798,
      "remaining": 6799,
      "bradycardia": 6800,
      "ws": 6801,
      "asone": 6802,
      "amyl": 6803,
      "discus": 6804,
      "tative": 6805,
      "subunit": 6806,
      "ligaments": 6807,
      "psori": 6808,
      "immunization": 6809,
      "NSAID": 6810,
      "carbohydrate": 6811,
      "reported": 6812,
      "QRS": 6813,
      "Ric": 6814,
      "taste": 6815,
      "refr": 6816,
      "quick": 6817,
      "fear": 6818,
      "hyperophy": 6819,
      "IVE": 6820,
      "improvement": 6821,
      "epigastric": 6822,
      "gradient": 6823,
      "instead": 6824,
      "notable": 6825,
      "hae": 6826,
      "vulgaris": 6827,
      "demonstrate": 6828,
      "contribute": 6829,
      "worsening": 6830,
      "gamma": 6831,
      "oflurane": 6832,
      "CIN": 6833,
      "Cushing": 6834,
      "Tim": 6835,
      "TNF": 6836,
      "displacement": 6837,
      "opulmonary": 6838,
      "neurologic": 6839,
      "deaths": 6840,
      "ript": 6841,
      "transpor": 6842,
      "establish": 6843,
      "pteryg": 6844,
      "Katzung": 6845,
      "Loc": 6846,
      "oedema": 6847,
      "myco": 6848,
      "Table": 6849,
      "arct": 6850,
      "sexually": 6851,
      "scalp": 6852,
      "ofibrom": 6853,
      "melanoma": 6854,
      "clotting": 6855,
      "cast": 6856,
      "chin": 6857,
      "postoperative": 6858,
      "append": 6859,
      "growing": 6860,
      "stimulate": 6861,
      "Vascular": 6862,
      "sulfate": 6863,
      "ensitivity": 6864,
      "Signs": 6865,
      "pathies": 6866,
      "ductus": 6867,
      "continue": 6868,
      "lactate": 6869,
      "hematoma": 6870,
      "streptococci": 6871,
      "glute": 6872,
      "grees": 6873,
      "masses": 6874,
      "identify": 6875,
      "extremity": 6876,
      "enough": 6877,
      "idiopathic": 6878,
      "%),": 6879,
      "Ur": 6880,
      "hab": 6881,
      "interest": 6882,
      "tubes": 6883,
      "Turner": 6884,
      "%).": 6885,
      "MIC": 6886,
      "metry": 6887,
      "Plac": 6888,
      "UM": 6889,
      "fort": 6890,
      "gradually": 6891,
      "wife": 6892,
      "candid": 6893,
      "ek": 6894,
      "vin": 6895,
      "went": 6896,
      "inhibitory": 6897,
      "nephrotic": 6898,
      "plaque": 6899,
      "Effect": 6900,
      "Toxicology": 6901,
      "psoriasis": 6902,
      "PRE": 6903,
      "replication": 6904,
      "astinal": 6905,
      "cram": 6906,
      "jective": 6907,
      "achieved": 6908,
      "Familial": 6909,
      "accurate": 6910,
      "casts": 6911,
      "imal": 6912,
      "factory": 6913,
      "fasting": 6914,
      "Factors": 6915,
      "fissure": 6916,
      "La": 6917,
      "ban": 6918,
      "uh": 6919,
      "earch": 6920,
      "microbial": 6921,
      "philia": 6922,
      "walking": 6923,
      "threatening": 6924,
      "itudinal": 6925,
      "Von": 6926,
      "usband": 6927,
      "angu": 6928,
      "biological": 6929,
      "2005": 6930,
      "loxacin": 6931,
      "resorption": 6932,
      "Atrial": 6933,
      "barium": 6934,
      "raine": 6935,
      "locity": 6936,
      "vagin": 6937,
      "chal": 6938,
      "living": 6939,
      "patch": 6940,
      "gallbladder": 6941,
      "arctation": 6942,
      "ero": 6943,
      "forward": 6944,
      "mono": 6945,
      "Thal": 6946,
      "fibroid": 6947,
      "Level": 6948,
      "trigger": 6949,
      "Are": 6950,
      "remember": 6951,
      "imp": 6952,
      "polysacchar": 6953,
      "akes": 6954,
      "lymphoid": 6955,
      "poorly": 6956,
      "peritoneum": 6957,
      "tolerance": 6958,
      "resuscitation": 6959,
      "TRI": 6960,
      "ola": 6961,
      "degrees": 6962,
      "malformation": 6963,
      "contaminated": 6964,
      "oxal": 6965,
      "ylar": 6966,
      "osteomyelitis": 6967,
      "twice": 6968,
      "Pelvic": 6969,
      "63": 6970,
      "BMI": 6971,
      "Gall": 6972,
      "onidine": 6973,
      "tendency": 6974,
      "tubercul": 6975,
      "employ": 6976,
      "Candida": 6977,
      "Rib": 6978,
      "trachoma": 6979,
      "stas": 6980,
      "Antibi": 6981,
      "techniques": 6982,
      "cystectomy": 6983,
      "MG": 6984,
      "ng": 6985,
      "Basal": 6986,
      "Late": 6987,
      "crest": 6988,
      "mRNA": 6989,
      "vena": 6990,
      "Contin": 6991,
      "maturity": 6992,
      "generated": 6993,
      "initiated": 6994,
      "94": 6995,
      "ologist": 6996,
      "ystag": 6997,
      "drains": 6998,
      "77": 6999,
      "repinephrine": 7000,
      "Intest": 7001,
      "tigmine": 7002,
      "digital": 7003,
      "Delay": 7004,
      "Incidence": 7005,
      "dele": 7006,
      "romycin": 7007,
      "secretory": 7008,
      "continence": 7009,
      "scro": 7010,
      "Sulf": 7011,
      "office": 7012,
      "Classification": 7013,
      "adic": 7014,
      "series": 7015,
      "incubation": 7016,
      "stream": 7017,
      "queous": 7018,
      "oderm": 7019,
      "attachment": 7020,
      "molality": 7021,
      "AFP": 7022,
      "capsular": 7023,
      ").*": 7024,
      "posteriorly": 7025,
      "Poor": 7026,
      "reaches": 7027,
      "promised": 7028,
      "Idiopathic": 7029,
      "Er": 7030,
      "dix": 7031,
      "corpor": 7032,
      "lopian": 7033,
      "sequences": 7034,
      "reflect": 7035,
      "disturbance": 7036,
      "cigarettes": 7037,
      "Sa": 7038,
      "attrib": 7039,
      "platin": 7040,
      "cursor": 7041,
      "Rect": 7042,
      "etine": 7043,
      "phosphorylation": 7044,
      "adhesion": 7045,
      "tracycline": 7046,
      "prone": 7047,
      "shor": 7048,
      "Now": 7049,
      "voice": 7050,
      "Rate": 7051,
      "une": 7052,
      "afferent": 7053,
      "toxins": 7054,
      "ulceration": 7055,
      "shortness": 7056,
      "Visual": 7057,
      "SC": 7058,
      "Very": 7059,
      "anus": 7060,
      "pathogenesis": 7061,
      "laterally": 7062,
      "ribs": 7063,
      "rene": 7064,
      "infective": 7065,
      "mosquito": 7066,
      "shaft": 7067,
      "Ill": 7068,
      "kers": 7069,
      "ona": 7070,
      "structural": 7071,
      "intravascular": 7072,
      "cephalus": 7073,
      "sigmoid": 7074,
      "XX": 7075,
      "xine": 7076,
      "perit": 7077,
      "adher": 7078,
      "peptic": 7079,
      "Endos": 7080,
      "granular": 7081,
      "ystagmus": 7082,
      "rejection": 7083,
      "itching": 7084,
      "maz": 7085,
      "radius": 7086,
      "progress": 7087,
      "ginine": 7088,
      "maintained": 7089,
      "athione": 7090,
      "vib": 7091,
      "endemic": 7092,
      "amn": 7093,
      "And": 7094,
      "prescribed": 7095,
      "relap": 7096,
      "passage": 7097,
      "Occurs": 7098,
      "iazide": 7099,
      "programme": 7100,
      "QT": 7101,
      "congestion": 7102,
      "perioste": 7103,
      "patches": 7104,
      "chromosomal": 7105,
      "ascites": 7106,
      "carries": 7107,
      "swollen": 7108,
      "advantage": 7109,
      "Mit": 7110,
      "bag": 7111,
      "cup": 7112,
      "carboxylase": 7113,
      "John": 7114,
      "Ra": 7115,
      "educ": 7116,
      "adap": 7117,
      "gloss": 7118,
      "Esoph": 7119,
      "abundant": 7120,
      "meal": 7121,
      "disability": 7122,
      "poral": 7123,
      "trachea": 7124,
      "Pseudo": 7125,
      "pylori": 7126,
      "HE": 7127,
      "Lim": 7128,
      "Lys": 7129,
      "teral": 7130,
      "unless": 7131,
      "sial": 7132,
      "soon": 7133,
      "mind": 7134,
      "PTT": 7135,
      "histological": 7136,
      "greatest": 7137,
      "scarring": 7138,
      "restriction": 7139,
      "amniotic": 7140,
      "Mito": 7141,
      "ots": 7142,
      "tool": 7143,
      "ified": 7144,
      "2007": 7145,
      "Carbon": 7146,
      "Spinal": 7147,
      "objects": 7148,
      "Cef": 7149,
      "Ja": 7150,
      "rod": 7151,
      "ocrit": 7152,
      "collapse": 7153,
      "metabolized": 7154,
      "preventing": 7155,
      "lipidemia": 7156,
      "Uterine": 7157,
      "Chemo": 7158,
      "Gray": 7159,
      "kyl": 7160,
      "intern": 7161,
      "polio": 7162,
      "drinks": 7163,
      "Aor": 7164,
      "Cutaneous": 7165,
      "ocortic": 7166,
      "aren": 7167,
      "perim": 7168,
      "neutral": 7169,
      "hypertrophy": 7170,
      "lobes": 7171,
      "streptococcal": 7172,
      "Estrogen": 7173,
      "fro": 7174,
      "eruption": 7175,
      "ense": 7176,
      "encies": 7177,
      "periods": 7178,
      "Genetic": 7179,
      "Ger": 7180,
      "Diarr": 7181,
      "Creatinine": 7182,
      "dehydration": 7183,
      "varies": 7184,
      "differential": 7185,
      "trigeminal": 7186,
      "82": 7187,
      "Bet": 7188,
      "Here": 7189,
      "OL": 7190,
      "ulated": 7191,
      "ithromycin": 7192,
      "Grade": 7193,
      "principal": 7194,
      "conjunctiva": 7195,
      "Topical": 7196,
      "54": 7197,
      "Pred": 7198,
      "mononucle": 7199,
      "2008": 7200,
      "film": 7201,
      "Defin": 7202,
      "Ventricular": 7203,
      "Has": 7204,
      "inger": 7205,
      "odular": 7206,
      "box": 7207,
      "ritin": 7208,
      "________": 7209,
      "Amino": 7210,
      "Sick": 7211,
      "omalacia": 7212,
      "Parkinson": 7213,
      "situated": 7214,
      "extending": 7215,
      "donor": 7216,
      "Line": 7217,
      "Short": 7218,
      "obliter": 7219,
      "antidepress": 7220,
      "activates": 7221,
      "Cyan": 7222,
      ":?": 7223,
      "trich": 7224,
      "antagonists": 7225,
      "Chor": 7226,
      "HSV": 7227,
      "simul": 7228,
      "contralateral": 7229,
      "steps": 7230,
      "patterns": 7231,
      "psychiatric": 7232,
      "You": 7233,
      "preserved": 7234,
      "Lact": 7235,
      "theory": 7236,
      "tran": 7237,
      "exchange": 7238,
      "overall": 7239,
      "Asperg": 7240,
      "thalamic": 7241,
      "ocardium": 7242,
      "metrical": 7243,
      "160": 7244,
      "Scler": 7245,
      "emotion": 7246,
      "kit": 7247,
      "tage": 7248,
      "zz": 7249,
      "Death": 7250,
      "pyloric": 7251,
      "Retinal": 7252,
      "cology": 7253,
      "date": 7254,
      "believed": 7255,
      "prolactin": 7256,
      "voir": 7257,
      "separated": 7258,
      "drinking": 7259,
      "estimated": 7260,
      "DO": 7261,
      "Pri": 7262,
      "husband": 7263,
      "refract": 7264,
      "oman": 7265,
      "monic": 7266,
      "communication": 7267,
      "epidermis": 7268,
      "pubey": 7269,
      "Barrett": 7270,
      "gout": 7271,
      "acerb": 7272,
      "pler": 7273,
      "oides": 7274,
      "avage": 7275,
      "workers": 7276,
      "calculated": 7277,
      "UG": 7278,
      "keep": 7279,
      "hyperparathyroidism": 7280,
      "pathologic": 7281,
      "tropine": 7282,
      "fig": 7283,
      "impr": 7284,
      "bonds": 7285,
      "Sensory": 7286,
      "Ju": 7287,
      "Mer": 7288,
      "Rx": 7289,
      "zapine": 7290,
      "mous": 7291,
      "spores": 7292,
      "ORS": 7293,
      "pupillary": 7294,
      "ix": 7295,
      "perone": 7296,
      "prolong": 7297,
      "hot": 7298,
      "uclear": 7299,
      "abdomy": 7300,
      "tubercle": 7301,
      "Cells": 7302,
      "Repeat": 7303,
      "typhus": 7304,
      "Hand": 7305,
      "gun": 7306,
      "kap": 7307,
      "sternal": 7308,
      "support": 7309,
      "tomycin": 7310,
      "stroma": 7311,
      "lamina": 7312,
      "papules": 7313,
      "Gynae": 7314,
      "collecting": 7315,
      "hyperkalemia": 7316,
      "elements": 7317,
      "orrho": 7318,
      "fundus": 7319,
      "detion": 7320,
      "compr": 7321,
      "transformation": 7322,
      "arrhythmias": 7323,
      "EEG": 7324,
      "Moderate": 7325,
      "Pep": 7326,
      "ival": 7327,
      "cemic": 7328,
      "resting": 7329,
      "congestive": 7330,
      "ysmal": 7331,
      "102": 7332,
      "ellow": 7333,
      "16th": 7334,
      "critical": 7335,
      "Leukocyte": 7336,
      "vastatin": 7337,
      "Case": 7338,
      "Go": 7339,
      "Tho": 7340,
      "deoxy": 7341,
      "suitable": 7342,
      "aryten": 7343,
      "occurred": 7344,
      "germin": 7345,
      "olk": 7346,
      "dian": 7347,
      "lopia": 7348,
      "ylate": 7349,
      "stimulated": 7350,
      "enectomy": 7351,
      "separate": 7352,
      "Simple": 7353,
      "Hypeension": 7354,
      "71": 7355,
      "anged": 7356,
      "rises": 7357,
      "vagus": 7358,
      "Carb": 7359,
      "reference": 7360,
      "investigations": 7361,
      "coding": 7362,
      "glossal": 7363,
      "Cate": 7364,
      "autonomic": 7365,
      "atom": 7366,
      "perform": 7367,
      "histamine": 7368,
      "cholera": 7369,
      "rogenic": 7370,
      "held": 7371,
      "stranded": 7372,
      "gluconeogenesis": 7373,
      "Az": 7374,
      "m2": 7375,
      "ococci": 7376,
      "rons": 7377,
      "suppression": 7378,
      "blockade": 7379,
      "stimuli": 7380,
      "leukocyte": 7381,
      "ecto": 7382,
      "compliance": 7383,
      "triglycer": 7384,
      "Tripathi": 7385,
      "iectasis": 7386,
      "ON": 7387,
      "oin": 7388,
      "account": 7389,
      "parum": 7390,
      "portal": 7391,
      "REM": 7392,
      "fails": 7393,
      "lactam": 7394,
      "falci": 7395,
      "Phenyl": 7396,
      "lips": 7397,
      "iring": 7398,
      "adock": 7399,
      "pemph": 7400,
      "dissoci": 7401,
      "immunosup": 7402,
      "dysphagia": 7403,
      "bitur": 7404,
      "Aspirin": 7405,
      "84": 7406,
      "Aer": 7407,
      "meet": 7408,
      "plasmic": 7409,
      "intrauterine": 7410,
      "closely": 7411,
      "diuretic": 7412,
      "MEDICAL": 7413,
      "ulo": 7414,
      "tically": 7415,
      "Contro": 7416,
      "Ultrasound": 7417,
      "principles": 7418,
      "expansion": 7419,
      "haemo": 7420,
      "fish": 7421,
      "tening": 7422,
      "bond": 7423,
      "delivered": 7424,
      "cava": 7425,
      "Radiation": 7426,
      "acetylcholine": 7427,
      "swallowing": 7428,
      "gum": 7429,
      "Cause": 7430,
      "ventricles": 7431,
      "glutamate": 7432,
      "simplex": 7433,
      "MEDICINE": 7434,
      "glycerol": 7435,
      "aise": 7436,
      "dres": 7437,
      "application": 7438,
      "cult": 7439,
      "blunt": 7440,
      "pathogenic": 7441,
      "responses": 7442,
      "psychiatry": 7443,
      "fragments": 7444,
      "MD": 7445,
      "Yellow": 7446,
      "angli": 7447,
      "services": 7448,
      "capsul": 7449,
      "spermat": 7450,
      "epinephrine": 7451,
      "Enzyme": 7452,
      "Kle": 7453,
      "Nor": 7454,
      "allo": 7455,
      "asing": 7456,
      "udine": 7457,
      "osteo": 7458,
      "ESS": 7459,
      "orescence": 7460,
      "aldosterone": 7461,
      "pharynx": 7462,
      "protr": 7463,
      "Third": 7464,
      "Salmon": 7465,
      "reshold": 7466,
      "pear": 7467,
      "availability": 7468,
      "aplastic": 7469,
      "sparing": 7470,
      "accounts": 7471,
      "debr": 7472,
      "caud": 7473,
      "poses": 7474,
      "aemo": 7475,
      "macular": 7476,
      "peptid": 7477,
      "Squamous": 7478,
      "pia": 7479,
      "lethar": 7480,
      "osmotic": 7481,
      "illar": 7482,
      "contract": 7483,
      "genitalia": 7484,
      "Ulnar": 7485,
      "warfarin": 7486,
      "Body": 7487,
      "Vital": 7488,
      "bull": 7489,
      "dequate": 7490,
      "exclusive": 7491,
      "mobil": 7492,
      "vestibular": 7493,
      "functioning": 7494,
      "conveed": 7495,
      "surveillance": 7496,
      "Ketamine": 7497,
      "omorphic": 7498,
      "C6": 7499,
      "Nas": 7500,
      "osmolality": 7501,
      "cortical": 7502,
      "Fatty": 7503,
      "->": 7504,
      "MB": 7505,
      "Mor": 7506,
      "Such": 7507,
      "keratitis": 7508,
      "Normally": 7509,
      "persist": 7510,
      "glycoprotein": 7511,
      "Autoimmune": 7512,
      "Potassium": 7513,
      "adolescent": 7514,
      "record": 7515,
      "asthenia": 7516,
      "leaf": 7517,
      "conazole": 7518,
      "cyte": 7519,
      "Frequ": 7520,
      "Gn": 7521,
      "cof": 7522,
      "lline": 7523,
      "staging": 7524,
      "suddenly": 7525,
      "situation": 7526,
      "accessory": 7527,
      "ezing": 7528,
      "caries": 7529,
      "rence": 7530,
      "treating": 7531,
      "continues": 7532,
      "nodular": 7533,
      "citonin": 7534,
      "fungi": 7535,
      "Rhin": 7536,
      "specifically": 7537,
      "Rest": 7538,
      "obar": 7539,
      "oxetine": 7540,
      "Reddy": 7541,
      "puber": 7542,
      "seminated": 7543,
      "Bic": 7544,
      "Motor": 7545,
      "oesophagus": 7546,
      "vity": 7547,
      "velocity": 7548,
      "apical": 7549,
      "tremor": 7550,
      "suppres": 7551,
      "trason": 7552,
      "wounds": 7553,
      "ganglionic": 7554,
      "eventually": 7555,
      "ophthalmic": 7556,
      "angiotensin": 7557,
      "450": 7558,
      "Gil": 7559,
      "Mil": 7560,
      "ale": 7561,
      "exc": 7562,
      "renic": 7563,
      "mediastinum": 7564,
      "worker": 7565,
      "entero": 7566,
      "sensor": 7567,
      "ESR": 7568,
      "inhalation": 7569,
      "Trauma": 7570,
      "EBV": 7571,
      "idone": 7572,
      "virid": 7573,
      "headaches": 7574,
      "salts": 7575,
      "IOLOGY": 7576,
      "Biopsy": 7577,
      "Colon": 7578,
      "hypeensive": 7579,
      "catechol": 7580,
      "beginning": 7581,
      "Contraindic": 7582,
      "89": 7583,
      "T2": 7584,
      "Thor": 7585,
      "chromic": 7586,
      "History": 7587,
      "enhanced": 7588,
      "Erythema": 7589,
      "spondy": 7590,
      "Delayed": 7591,
      "mu": 7592,
      "acceler": 7593,
      "compe": 7594,
      "stay": 7595,
      "serous": 7596,
      "retinitis": 7597,
      "aneurysms": 7598,
      "strongly": 7599,
      "Cyst": 7600,
      "ostigmine": 7601,
      "fiber": 7602,
      "Try": 7603,
      "malignancies": 7604,
      "tunnel": 7605,
      "destroy": 7606,
      "ley": 7607,
      "implicated": 7608,
      "passed": 7609,
      "cript": 7610,
      "diminished": 7611,
      "lon": 7612,
      "exacerb": 7613,
      "plasty": 7614,
      "Retro": 7615,
      "Female": 7616,
      "ramidal": 7617,
      "surrounded": 7618,
      "scapular": 7619,
      "Benign": 7620,
      "Development": 7621,
      "Penicillin": 7622,
      "A1": 7623,
      "Based": 7624,
      "Sel": 7625,
      "malaise": 7626,
      "Chlamydia": 7627,
      "fluenza": 7628,
      "190": 7629,
      "thalassemia": 7630,
      "coloration": 7631,
      "CV": 7632,
      "GIT": 7633,
      "seven": 7634,
      "constriction": 7635,
      "code": 7636,
      "101": 7637,
      "ifth": 7638,
      "metabolite": 7639,
      "Differ": 7640,
      "introduced": 7641,
      "osso": 7642,
      "flurane": 7643,
      "Cons": 7644,
      "Once": 7645,
      "horn": 7646,
      "anteriorly": 7647,
      "polypeptide": 7648,
      "Harrison20th": 7649,
      "staed": 7650,
      "public": 7651,
      "Cerebral": 7652,
      "synopsis": 7653,
      "87": 7654,
      "Bile": 7655,
      "Nasal": 7656,
      "S1": 7657,
      "bis": 7658,
      "ever": 7659,
      "zol": 7660,
      "endogenous": 7661,
      "pron": 7662,
      "cinate": 7663,
      "responsive": 7664,
      "columnar": 7665,
      "incontinence": 7666,
      "personal": 7667,
      "regional": 7668,
      "nephritis": 7669,
      "Vaso": 7670,
      "otropin": 7671,
      "........": 7672,
      "pericarditis": 7673,
      "Spon": 7674,
      "interosse": 7675,
      "bleed": 7676,
      "metacar": 7677,
      "ulcerative": 7678,
      "ASD": 7679,
      "pneumothorax": 7680,
      "smoke": 7681,
      "ADP": 7682,
      "receiving": 7683,
      "issue": 7684,
      "ideal": 7685,
      "tree": 7686,
      "formations": 7687,
      "icella": 7688,
      "tonuria": 7689,
      "Stand": 7690,
      "erythropo": 7691,
      "razole": 7692,
      "eosinophilic": 7693,
      "pure": 7694,
      "zoster": 7695,
      "ength": 7696,
      "themia": 7697,
      "arate": 7698,
      "dioxide": 7699,
      "cycline": 7700,
      "rio": 7701,
      "vasoconstriction": 7702,
      "Methotrexate": 7703,
      "turator": 7704,
      "progressively": 7705,
      "51": 7706,
      "Lith": 7707,
      "lix": 7708,
      "Proximal": 7709,
      "factant": 7710,
      "palpit": 7711,
      "Medullary": 7712,
      "neurotransmit": 7713,
      "splenomegaly": 7714,
      "requirement": 7715,
      "sweat": 7716,
      "Atropine": 7717,
      "dimen": 7718,
      "Where": 7719,
      "palmar": 7720,
      "tonsil": 7721,
      "neoplastic": 7722,
      "embryonic": 7723,
      "nur": 7724,
      "philus": 7725,
      "Hom": 7726,
      "Sarcoidosis": 7727,
      "TC": 7728,
      "nis": 7729,
      "plite": 7730,
      "cellul": 7731,
      "preterm": 7732,
      "precursor": 7733,
      "Follic": 7734,
      "Viral": 7735,
      "Gynec": 7736,
      "embranous": 7737,
      "Pat": 7738,
      "incomplete": 7739,
      "tocin": 7740,
      "idi": 7741,
      "oxif": 7742,
      "Defect": 7743,
      "indications": 7744,
      "Radial": 7745,
      "Gold": 7746,
      "Morph": 7747,
      "plants": 7748,
      "Heart": 7749,
      "crim": 7750,
      "Persistent": 7751,
      "ejection": 7752,
      "onyl": 7753,
      "lock": 7754,
      "pled": 7755,
      "longitudinal": 7756,
      "Schizophrenia": 7757,
      "parasite": 7758,
      "Papillary": 7759,
      "amyloidosis": 7760,
      "Ber": 7761,
      "DIC": 7762,
      "nm": 7763,
      "hetero": 7764,
      "phae": 7765,
      "moidal": 7766,
      "interaction": 7767,
      "hypercalcemia": 7768,
      "Condition": 7769,
      "rube": 7770,
      "suspic": 7771,
      "bacillus": 7772,
      "markedly": 7773,
      "relaxant": 7774,
      "Free": 7775,
      "otes": 7776,
      "pm": 7777,
      "arin": 7778,
      "seb": 7779,
      "puls": 7780,
      "ophilic": 7781,
      "fructose": 7782,
      "Addition": 7783,
      "Adult": 7784,
      "Harrisons": 7785,
      "expand": 7786,
      "nails": 7787,
      "61": 7788,
      "Fer": 7789,
      "Mye": 7790,
      "eclampsia": 7791,
      "Ang": 7792,
      "formula": 7793,
      "Form": 7794,
      "triosis": 7795,
      "leukocytes": 7796,
      "oxidative": 7797,
      "focus": 7798,
      "refractory": 7799,
      "LC": 7800,
      "asp": 7801,
      "omed": 7802,
      "charged": 7803,
      "entially": 7804,
      "trypsin": 7805,
      "neoplasms": 7806,
      "runs": 7807,
      "NK": 7808,
      "icide": 7809,
      "clav": 7810,
      "ouse": 7811,
      "purpose": 7812,
      "Cyclo": 7813,
      "Electro": 7814,
      "Fur": 7815,
      "fts": 7816,
      "osyn": 7817,
      "cavernous": 7818,
      "instem": 7819,
      "Prop": 7820,
      "Pyruvate": 7821,
      "Goodman": 7822,
      "modification": 7823,
      "Hir": 7824,
      "Hip": 7825,
      "pate": 7826,
      "variation": 7827,
      "experienced": 7828,
      "precipitate": 7829,
      "Basis": 7830,
      "Tric": 7831,
      "fresh": 7832,
      "esh": 7833,
      "entery": 7834,
      "iden": 7835,
      "colic": 7836,
      "tricuspid": 7837,
      "sustained": 7838,
      "neonates": 7839,
      "Guyton": 7840,
      "reticulum": 7841,
      "Dorsal": 7842,
      "Fron": 7843,
      "Hz": 7844,
      "rist": 7845,
      "enamel": 7846,
      "amins": 7847,
      "bio": 7848,
      "Entero": 7849,
      "Caused": 7850,
      "Pathologic": 7851,
      "Wer": 7852,
      "War": 7853,
      "soc": 7854,
      "encing": 7855,
      "ulum": 7856,
      "love": 7857,
      "segmental": 7858,
      "received": 7859,
      "contraception": 7860,
      "receives": 7861,
      "doc": 7862,
      "dural": 7863,
      "got": 7864,
      "rose": 7865,
      "coical": 7866,
      "colonic": 7867,
      "adily": 7868,
      "Mitral": 7869,
      "Site": 7870,
      "heter": 7871,
      "preced": 7872,
      "outflow": 7873,
      "groove": 7874,
      "enzae": 7875,
      "Combin": 7876,
      "AML": 7877,
      "phospholipid": 7878,
      "pallor": 7879,
      "Pediatrics": 7880,
      "Eye": 7881,
      "MY": 7882,
      "intox": 7883,
      "gravis": 7884,
      "11th": 7885,
      "ishment": 7886,
      "tight": 7887,
      "cytokines": 7888,
      "carriers": 7889,
      "diverticul": 7890,
      "polysaccharide": 7891,
      "N2": 7892,
      "ww": 7893,
      "moves": 7894,
      "prenatal": 7895,
      "circular": 7896,
      "Impaired": 7897,
      "neuritis": 7898,
      "Inhibit": 7899,
      "relief": 7900,
      "prostatic": 7901,
      "American": 7902,
      "intoxication": 7903,
      "ev": 7904,
      "ossi": 7905,
      "fined": 7906,
      "electrical": 7907,
      "leuko": 7908,
      "potentially": 7909,
      "Femoral": 7910,
      "PM": 7911,
      "echo": 7912,
      "capable": 7913,
      "electroph": 7914,
      "daugh": 7915,
      "\"?": 7916,
      "DIS": 7917,
      "Ka": 7918,
      "Ko": 7919,
      "regres": 7920,
      "lipids": 7921,
      "Male": 7922,
      "occasional": 7923,
      "Rifampic": 7924,
      "chief": 7925,
      "FR": 7926,
      "Pemph": 7927,
      "bund": 7928,
      "ier": 7929,
      "Carbo": 7930,
      "allel": 7931,
      "depth": 7932,
      "window": 7933,
      "anion": 7934,
      "iss": 7935,
      "atous": 7936,
      "roots": 7937,
      "sem": 7938,
      "chances": 7939,
      "Extr": 7940,
      "cysto": 7941,
      "broncho": 7942,
      "identification": 7943,
      "hallmark": 7944,
      "residues": 7945,
      "Distal": 7946,
      "falciparum": 7947,
      "LV": 7948,
      "Psor": 7949,
      "peroxidase": 7950,
      "intoler": 7951,
      "membran": 7952,
      "mediastinal": 7953,
      "granulomatosis": 7954,
      "oglycos": 7955,
      "Rifampicin": 7956,
      "Chem": 7957,
      "Out": 7958,
      "perfect": 7959,
      "meter": 7960,
      "anatomical": 7961,
      "converted": 7962,
      "confused": 7963,
      "lithium": 7964,
      "Neonatal": 7965,
      "CUR": 7966,
      "Dose": 7967,
      "TCA": 7968,
      "otyp": 7969,
      "uated": 7970,
      "inn": 7971,
      "ante": 7972,
      "lection": 7973,
      "opac": 7974,
      "gastrin": 7975,
      "Arter": 7976,
      "titude": 7977,
      "Scal": 7978,
      "Vi": 7979,
      "threshold": 7980,
      "remn": 7981,
      "paum": 7982,
      "imens": 7983,
      "collateral": 7984,
      "Trig": 7985,
      "Lymphoma": 7986,
      "ovaries": 7987,
      "Black": 7988,
      ".',": 7989,
      "Sud": 7990,
      "osmolar": 7991,
      "RENT": 7992,
      "matosus": 7993,
      "adenomas": 7994,
      "thorax": 7995,
      "improved": 7996,
      "distributed": 7997,
      "idy": 7998,
      "degener": 7999,
      "hemis": 8000,
      "icken": 8001,
      "conjunctival": 8002,
      "saturated": 8003,
      "unique": 8004,
      "dye": 8005,
      "pills": 8006,
      "tives": 8007,
      "folic": 8008,
      "ptysis": 8009,
      "mentos": 8010,
      "modality": 8011,
      "perineal": 8012,
      "migration": 8013,
      "epilepsy": 8014,
      "Fi": 8015,
      "XI": 8016,
      "isser": 8017,
      "vertical": 8018,
      "Excessive": 8019,
      "oked": 8020,
      "odynamic": 8021,
      "Myel": 8022,
      "SIS": 8023,
      "aim": 8024,
      "reproductive": 8025,
      "irreversible": 8026,
      "opper": 8027,
      "sional": 8028,
      "going": 8029,
      "breakdown": 8030,
      "Initial": 8031,
      "indirect": 8032,
      "arone": 8033,
      "varian": 8034,
      "ospasm": 8035,
      "follicle": 8036,
      "kett": 8037,
      "Family": 8038,
      "terms": 8039,
      "obacter": 8040,
      "ears": 8041,
      "philic": 8042,
      "girls": 8043,
      "Quin": 8044,
      "Glycogen": 8045,
      "TS": 8046,
      "inamide": 8047,
      "urnal": 8048,
      "bipolar": 8049,
      "clospor": 8050,
      "Muscles": 8051,
      "Immune": 8052,
      "fluoride": 8053,
      "enes": 8054,
      "Progressive": 8055,
      "Neck": 8056,
      "30th": 8057,
      "Glomer": 8058,
      "sinusitis": 8059,
      "exhibit": 8060,
      "pra": 8061,
      "quite": 8062,
      "osity": 8063,
      "expiration": 8064,
      "testes": 8065,
      "cru": 8066,
      "doesn": 8067,
      "numbers": 8068,
      "successful": 8069,
      "million": 8070,
      "86": 8071,
      "codes": 8072,
      "oll": 8073,
      "cury": 8074,
      "waste": 8075,
      "psychosis": 8076,
      "Intestinal": 8077,
      "Fore": 8078,
      "Yes": 8079,
      "aqueous": 8080,
      "dors": 8081,
      "ka": 8082,
      "agia": 8083,
      "experim": 8084,
      "pran": 8085,
      "voltage": 8086,
      "audi": 8087,
      "remove": 8088,
      "sole": 8089,
      "Recent": 8090,
      "azepine": 8091,
      "trials": 8092,
      "Vaginal": 8093,
      "deviation": 8094,
      "Ovarian": 8095,
      "cAMP": 8096,
      "ocutaneous": 8097,
      "impulse": 8098,
      "Aoic": 8099,
      "Por": 8100,
      "wari": 8101,
      "esia": 8102,
      "compati": 8103,
      "sore": 8104,
      "angerous": 8105,
      "histi": 8106,
      "locations": 8107,
      "IONS": 8108,
      "Amyloid": 8109,
      "Van": 8110,
      "anore": 8111,
      "unconscious": 8112,
      "brevis": 8113,
      "hypokalemia": 8114,
      "younger": 8115,
      "CHF": 8116,
      "lipoprotein": 8117,
      "liquid": 8118,
      "decade": 8119,
      "commod": 8120,
      "resolution": 8121,
      "ckel": 8122,
      "nystagmus": 8123,
      "atar": 8124,
      "unstable": 8125,
      "project": 8126,
      "clean": 8127,
      "nucleotide": 8128,
      "said": 8129,
      "oriented": 8130,
      "Earli": 8131,
      "nearly": 8132,
      "iazid": 8133,
      "Fre": 8134,
      "Lig": 8135,
      "tritis": 8136,
      "distended": 8137,
      "pow": 8138,
      "transition": 8139,
      "cesarean": 8140,
      "cytochrome": 8141,
      "extraction": 8142,
      "adrenaline": 8143,
      "connection": 8144,
      "codon": 8145,
      "NADPH": 8146,
      "Mitochondr": 8147,
      "79": 8148,
      "<\\": 8149,
      "uity": 8150,
      "articular": 8151,
      "clude": 8152,
      "shad": 8153,
      "pathogn": 8154,
      "aking": 8155,
      "chlorine": 8156,
      "delusion": 8157,
      "separation": 8158,
      "restricted": 8159,
      "cerebellum": 8160,
      "PAN": 8161,
      "Var": 8162,
      "consent": 8163,
      "influenzae": 8164,
      "Practice": 8165,
      "reservoir": 8166,
      "Sickle": 8167,
      "Haemo": 8168,
      "Pun": 8169,
      "acne": 8170,
      "tell": 8171,
      "discoloration": 8172,
      "ucent": 8173,
      "drops": 8174,
      "Stud": 8175,
      "Syno": 8176,
      "TRUE": 8177,
      "abortion": 8178,
      "Aspergillus": 8179,
      "C1": 8180,
      "burg": 8181,
      "scor": 8182,
      "vular": 8183,
      "distension": 8184,
      "acidic": 8185,
      "colonies": 8186,
      "Mah": 8187,
      "ginal": 8188,
      "relie": 8189,
      "pole": 8190,
      "wash": 8191,
      "flexed": 8192,
      "cribe": 8193,
      "Psychiatry": 8194,
      "prehensive": 8195,
      "Eosinoph": 8196,
      "Sig": 8197,
      "econ": 8198,
      "risis": 8199,
      "cultures": 8200,
      "works": 8201,
      "Interstitial": 8202,
      "inhaled": 8203,
      "anastomosis": 8204,
      "URE": 8205,
      "icitis": 8206,
      "teine": 8207,
      "oxazole": 8208,
      "Criteria": 8209,
      "amethasone": 8210,
      "ossopharyngeal": 8211,
      "Lithium": 8212,
      "gri": 8213,
      "meg": 8214,
      "express": 8215,
      "ferritin": 8216,
      "Depression": 8217,
      "Hemorrh": 8218,
      "(\"": 8219,
      "FO": 8220,
      "unning": 8221,
      "synthetic": 8222,
      "Carcin": 8223,
      "oplastic": 8224,
      "gangrene": 8225,
      "citrate": 8226,
      "Cis": 8227,
      "cythemia": 8228,
      "elong": 8229,
      "doing": 8230,
      "glycos": 8231,
      "arranged": 8232,
      "releasing": 8233,
      "Relative": 8234,
      "diveicul": 8235,
      "powder": 8236,
      "Tris": 8237,
      "delirium": 8238,
      "existing": 8239,
      "versal": 8240,
      "curv": 8241,
      "obvious": 8242,
      "translocation": 8243,
      "atile": 8244,
      "borne": 8245,
      "pupils": 8246,
      "Infections": 8247,
      "anticoagulant": 8248,
      "morbidity": 8249,
      "trasonography": 8250,
      "Rupt": 8251,
      "Uro": 8252,
      "icial": 8253,
      "amil": 8254,
      "perist": 8255,
      "pred": 8256,
      "ameters": 8257,
      "logically": 8258,
      "intraocular": 8259,
      "lacrimal": 8260,
      "Hepat": 8261,
      "cysteine": 8262,
      "Duct": 8263,
      "Fund": 8264,
      "hil": 8265,
      "ki": 8266,
      "inactive": 8267,
      "irid": 8268,
      "opic": 8269,
      "gles": 8270,
      "ximab": 8271,
      "tracts": 8272,
      "Life": 8273,
      "sources": 8274,
      "epidural": 8275,
      "prostagland": 8276,
      "innervation": 8277,
      "Green": 8278,
      "induces": 8279,
      "cognitive": 8280,
      "stiffness": 8281,
      "bases": 8282,
      "jer": 8283,
      "bloody": 8284,
      "blur": 8285,
      "metformin": 8286,
      "Cholesterol": 8287,
      "ensitive": 8288,
      "rods": 8289,
      "tris": 8290,
      "methotrexate": 8291,
      "utro": 8292,
      "bright": 8293,
      "infancy": 8294,
      "plantar": 8295,
      "Block": 8296,
      "Pharmacology": 8297,
      "Import": 8298,
      "depletion": 8299,
      "Dopamine": 8300,
      "Gross": 8301,
      "Mur": 8302,
      "Sper": 8303,
      "Spor": 8304,
      "concept": 8305,
      "opril": 8306,
      "uresis": 8307,
      "Complex": 8308,
      "working": 8309,
      "Hypothyroidism": 8310,
      "Pressure": 8311,
      "Diabetic": 8312,
      "Clo": 8313,
      "somat": 8314,
      "completed": 8315,
      "...": 8316,
      "ANCA": 8317,
      "adipose": 8318,
      "smoked": 8319,
      "getting": 8320,
      "Double": 8321,
      "assessed": 8322,
      "nutri": 8323,
      "ptive": 8324,
      "heman": 8325,
      "oxysmal": 8326,
      "maturation": 8327,
      "dilator": 8328,
      "undergoing": 8329,
      "concern": 8330,
      "EP": 8331,
      "loose": 8332,
      "vida": 8333,
      "PATHI": 8334,
      "Haem": 8335,
      "ocoicoid": 8336,
      "Chaur": 8337,
      "GnRH": 8338,
      "eti": 8339,
      "real": 8340,
      "agne": 8341,
      "blot": 8342,
      "ogene": 8343,
      "samples": 8344,
      "necrotizing": 8345,
      "infiltrates": 8346,
      "Sw": 8347,
      "device": 8348,
      "proate": 8349,
      "tensor": 8350,
      "hemian": 8351,
      "analgesia": 8352,
      "Lesions": 8353,
      "Venous": 8354,
      "recipi": 8355,
      "hemangi": 8356,
      "gic": 8357,
      "ofor": 8358,
      "arial": 8359,
      "spind": 8360,
      "lymphocytic": 8361,
      "13th": 8362,
      "HAI": 8363,
      "ammonia": 8364,
      "zziness": 8365,
      "pu": 8366,
      "admission": 8367,
      "genome": 8368,
      "dermis": 8369,
      "2000": 8370,
      "Afric": 8371,
      "pectoral": 8372,
      "THE": 8373,
      "Method": 8374,
      "eggs": 8375,
      "Oxygen": 8376,
      "pranolol": 8377,
      "73": 8378,
      "Four": 8379,
      "Magn": 8380,
      "fav": 8381,
      "renin": 8382,
      "glot": 8383,
      "burning": 8384,
      "epiglot": 8385,
      "Ophthalmology": 8386,
      "ietin": 8387,
      "Chaurasia": 8388,
      "VLDL": 8389,
      "coal": 8390,
      "keleton": 8391,
      "cephaly": 8392,
      "Ata": 8393,
      "Pen": 8394,
      "TT": 8395,
      "research": 8396,
      "cane": 8397,
      "doub": 8398,
      "phosphamide": 8399,
      "omastoid": 8400,
      "oplasmosis": 8401,
      "improves": 8402,
      "Inflammatory": 8403,
      "TRIPATHI": 8404,
      "Cong": 8405,
      "Olig": 8406,
      "xone": 8407,
      "anaerobic": 8408,
      "omnia": 8409,
      "dizziness": 8410,
      "confined": 8411,
      "endoscopic": 8412,
      "transcript": 8413,
      "Meckel": 8414,
      "chromatosis": 8415,
      "infiltrate": 8416,
      "migraine": 8417,
      "magnesium": 8418,
      "puncture": 8419,
      "Further": 8420,
      "+,": 8421,
      "cic": 8422,
      "infr": 8423,
      "malabsorption": 8424,
      "hole": 8425,
      ").#": 8426,
      "occurrence": 8427,
      "activate": 8428,
      "Paget": 8429,
      "GHAI": 8430,
      "VSD": 8431,
      "cres": 8432,
      "lein": 8433,
      "idor": 8434,
      "depressed": 8435,
      "cott": 8436,
      "injected": 8437,
      "appearing": 8438,
      "prevented": 8439,
      "nitro": 8440,
      "nicot": 8441,
      "lymphatics": 8442,
      "Schwaz": 8443,
      "depolarization": 8444,
      "tetanus": 8445,
      "HBsAg": 8446,
      "ofibromatosis": 8447,
      "fying": 8448,
      "xanth": 8449,
      "unusual": 8450,
      "endoscopy": 8451,
      "utional": 8452,
      "Lipo": 8453,
      "Pulse": 8454,
      "selected": 8455,
      "compament": 8456,
      "drink": 8457,
      "ANAN": 8458,
      "seems": 8459,
      "Slow": 8460,
      "opo": 8461,
      "zinc": 8462,
      "COPD": 8463,
      "glucagon": 8464,
      "peptides": 8465,
      "bellar": 8466,
      "complaint": 8467,
      "euver": 8468,
      "shadow": 8469,
      "DP": 8470,
      "monoclonal": 8471,
      "yeast": 8472,
      "tested": 8473,
      "wning": 8474,
      "supra": 8475,
      "oplasty": 8476,
      "cephalic": 8477,
      "remainder": 8478,
      "tears": 8479,
      "hysterectomy": 8480,
      "simultaneous": 8481,
      "nipple": 8482,
      "cha": 8483,
      "paresis": 8484,
      "aminase": 8485,
      "crack": 8486,
      "ligh": 8487,
      "azol": 8488,
      "goes": 8489,
      "ponade": 8490,
      "sterilization": 8491,
      "pigmentos": 8492,
      "suprac": 8493,
      "----------------": 8494,
      "instability": 8495,
      "Shaw": 8496,
      "AA": 8497,
      "pie": 8498,
      "stains": 8499,
      "Thick": 8500,
      "signals": 8501,
      "planning": 8502,
      "NADH": 8503,
      "necrotic": 8504,
      "rubella": 8505,
      "How": 8506,
      "Side": 8507,
      "coc": 8508,
      "icus": 8509,
      "toward": 8510,
      "note": 8511,
      "Ind": 8512,
      "Neisser": 8513,
      "Obs": 8514,
      "ethmoidal": 8515,
      "detecting": 8516,
      "cluded": 8517,
      "immunodeficiency": 8518,
      "appendix": 8519,
      "Number": 8520,
      "ivacaine": 8521,
      "peroneal": 8522,
      "NM": 8523,
      "bsi": 8524,
      "extern": 8525,
      "opal": 8526,
      "enses": 8527,
      "breaks": 8528,
      "thickened": 8529,
      "Genital": 8530,
      "triaxone": 8531,
      "fibrinogen": 8532,
      "Important": 8533,
      "Focal": 8534,
      "Nal": 8535,
      "vector": 8536,
      "conservative": 8537,
      "stature": 8538,
      "solitary": 8539,
      "medially": 8540,
      "erythrocytes": 8541,
      "Gastrointestinal": 8542,
      "Selective": 8543,
      "cub": 8544,
      "rexia": 8545,
      "andibular": 8546,
      "antagon": 8547,
      "erythematosus": 8548,
      "cholecystectomy": 8549,
      "aboion": 8550,
      "CURRENT": 8551,
      "anorexia": 8552,
      "GR": 8553,
      "Lichen": 8554,
      "PAS": 8555,
      "Stra": 8556,
      "offer": 8557,
      "ostatin": 8558,
      "caine": 8559,
      "grows": 8560,
      "Hyperkalemia": 8561,
      "clearly": 8562,
      "Tumour": 8563,
      "amnios": 8564,
      "GLUT": 8565,
      "crisis": 8566,
      "sarcoidosis": 8567,
      "isomer": 8568,
      "malformations": 8569,
      "biochemical": 8570,
      "places": 8571,
      "satis": 8572,
      "ATPase": 8573,
      "intervals": 8574,
      "prolol": 8575,
      "membranous": 8576,
      "\"'},": 8577,
      "83": 8578,
      "etal": 8579,
      "ration": 8580,
      "conium": 8581,
      "brand": 8582,
      "marks": 8583,
      "significance": 8584,
      "influence": 8585,
      "cuff": 8586,
      "arrow": 8587,
      "norepinephrine": 8588,
      "ductal": 8589,
      "Typical": 8590,
      "Maxillary": 8591,
      "Often": 8592,
      "Nic": 8593,
      "fifth": 8594,
      "ani": 8595,
      "parallel": 8596,
      "prac": 8597,
      "planus": 8598,
      "suggested": 8599,
      "atherosclerosis": 8600,
      "Shig": 8601,
      "Embr": 8602,
      "mixture": 8603,
      "education": 8604,
      "puberty": 8605,
      "bub": 8606,
      "fused": 8607,
      "hyaline": 8608,
      "definition": 8609,
      "Salmonella": 8610,
      "umes": 8611,
      "began": 8612,
      "igra": 8613,
      "mobile": 8614,
      "hemi": 8615,
      "ocardiography": 8616,
      "observation": 8617,
      "contraindication": 8618,
      "pust": 8619,
      "pheochromocytoma": 8620,
      "villi": 8621,
      "retraction": 8622,
      "toe": 8623,
      "oment": 8624,
      "hyponatremia": 8625,
      "paradox": 8626,
      "maneuver": 8627,
      "antile": 8628,
      "protect": 8629,
      "suppor": 8630,
      "bacteri": 8631,
      "numb": 8632,
      "equi": 8633,
      "Brooks": 8634,
      "Fluor": 8635,
      "inseion": 8636,
      "Endometrial": 8637,
      "bsiella": 8638,
      "Cult": 8639,
      "LES": 8640,
      "Pig": 8641,
      "Scre": 8642,
      "Time": 8643,
      "Tissue": 8644,
      "Women": 8645,
      "sca": 8646,
      "105": 8647,
      "hypertensive": 8648,
      "thyroiditis": 8649,
      "Does": 8650,
      "starts": 8651,
      "Marfan": 8652,
      "William": 8653,
      "promote": 8654,
      "pterygoid": 8655,
      "Iod": 8656,
      "Rod": 8657,
      "Sour": 8658,
      "iscus": 8659,
      "seques": 8660,
      "hyphae": 8661,
      "chorionic": 8662,
      "pericardial": 8663,
      "examined": 8664,
      "employed": 8665,
      "Juvenile": 8666,
      "immunocom": 8667,
      "glycemic": 8668,
      "Immediate": 8669,
      "ventional": 8670,
      "derivatives": 8671,
      "gluteal": 8672,
      "jac": 8673,
      "tall": 8674,
      "uture": 8675,
      "cholester": 8676,
      "Antibody": 8677,
      "contraceptives": 8678,
      "aggregation": 8679,
      "Thorac": 8680,
      "Tet": 8681,
      "dangerous": 8682,
      "ya": 8683,
      "displaced": 8684,
      "iller": 8685,
      "mania": 8686,
      "Alb": 8687,
      "ponin": 8688,
      "latent": 8689,
      "clavi": 8690,
      "Keto": 8691,
      "cinylcholine": 8692,
      "arytenoid": 8693,
      "intolerance": 8694,
      "26th": 8695,
      "Pin": 8696,
      "aph": 8697,
      "encoun": 8698,
      "veical": 8699,
      "bearing": 8700,
      "subarachnoid": 8701,
      "activating": 8702,
      "See": 8703,
      "lobular": 8704,
      "Greater": 8705,
      "deletion": 8706,
      "ert": 8707,
      "orous": 8708,
      "heme": 8709,
      "quest": 8710,
      "chills": 8711,
      "perception": 8712,
      "apo": 8713,
      "apes": 8714,
      "profile": 8715,
      "datid": 8716,
      "oration": 8717,
      "entan": 8718,
      "demand": 8719,
      "amma": 8720,
      "cerebro": 8721,
      "techn": 8722,
      "Osteo": 8723,
      "papilloma": 8724,
      "mess": 8725,
      "centric": 8726,
      "fallopian": 8727,
      "foods": 8728,
      "sickness": 8729,
      "hans": 8730,
      "otos": 8731,
      "phery": 8732,
      "amazepine": 8733,
      "clic": 8734,
      "kinin": 8735,
      "Blue": 8736,
      "safety": 8737,
      "thiamine": 8738,
      "NSAIDs": 8739,
      "palpitations": 8740,
      "Fil": 8741,
      "ipr": 8742,
      "yrin": 8743,
      "osi": 8744,
      "inalysis": 8745,
      "mance": 8746,
      "secreting": 8747,
      "Urea": 8748,
      "Approximately": 8749,
      "electrophoresis": 8750,
      "Pemphigus": 8751,
      "81": 8752,
      "LN": 8753,
      "fed": 8754,
      "het": 8755,
      "mobility": 8756,
      "istance": 8757,
      "stra": 8758,
      "metabolites": 8759,
      "watery": 8760,
      "ultim": 8761,
      "Actin": 8762,
      "timal": 8763,
      "enol": 8764,
      "uck": 8765,
      "curonium": 8766,
      "pulsive": 8767,
      "Hypercalcemia": 8768,
      "grey": 8769,
      "recover": 8770,
      "?\"?": 8771,
      "Base": 8772,
      "Zinc": 8773,
      "los": 8774,
      "purine": 8775,
      "consisting": 8776,
      "partner": 8777,
      "aeritis": 8778,
      "epiphysis": 8779,
      "termination": 8780,
      "persists": 8781,
      "stromal": 8782,
      "bands": 8783,
      "Control": 8784,
      "Lin": 8785,
      "laryng": 8786,
      "lium": 8787,
      "tened": 8788,
      "largest": 8789,
      "pregnancies": 8790,
      "sacral": 8791,
      "Occ": 8792,
      "Regarding": 8793,
      "sixth": 8794,
      "lobulins": 8795,
      "hi": 8796,
      "ingest": 8797,
      "urally": 8798,
      "opens": 8799,
      "ceptors": 8800,
      "manner": 8801,
      "Adverse": 8802,
      "histologic": 8803,
      "explains": 8804,
      "pediatrician": 8805,
      "Bab": 8806,
      "OP": 8807,
      "oside": 8808,
      "accommod": 8809,
      "pool": 8810,
      "obstruct": 8811,
      "arynge": 8812,
      "branchial": 8813,
      "Paniker": 8814,
      "electrolyte": 8815,
      "fas": 8816,
      "metic": 8817,
      "radiological": 8818,
      "Microscopic": 8819,
      "ordin": 8820,
      "impact": 8821,
      "Categ": 8822,
      "somatic": 8823,
      "predomin": 8824,
      "istaxis": 8825,
      "obese": 8826,
      "gray": 8827,
      "oxycycline": 8828,
      "hemorrhages": 8829,
      "evaluated": 8830,
      "circumference": 8831,
      "Gynecology": 8832,
      "Rube": 8833,
      "rectomy": 8834,
      "roma": 8835,
      "Influenza": 8836,
      "Prost": 8837,
      "breech": 8838,
      "uller": 8839,
      "mothers": 8840,
      "Several": 8841,
      "distant": 8842,
      "cytosol": 8843,
      "biturates": 8844,
      "exclusively": 8845,
      "spondylitis": 8846,
      "Occasion": 8847,
      "Bor": 8848,
      "Hen": 8849,
      "dog": 8850,
      "clan": 8851,
      "Period": 8852,
      "Unilateral": 8853,
      "hepatomegaly": 8854,
      "irritation": 8855,
      "D2": 8856,
      "Hair": 8857,
      "final": 8858,
      "itant": 8859,
      "itrate": 8860,
      "cortis": 8861,
      "explanation": 8862,
      "pleas": 8863,
      "Sec": 8864,
      "fields": 8865,
      "clines": 8866,
      "otides": 8867,
      "inadequate": 8868,
      "myeloid": 8869,
      "twin": 8870,
      "burst": 8871,
      "quinol": 8872,
      "category": 8873,
      "numbness": 8874,
      "OM": 8875,
      "Ocular": 8876,
      "moder": 8877,
      "idol": 8878,
      "trabe": 8879,
      "largely": 8880,
      "macules": 8881,
      "Sometimes": 8882,
      "latter": 8883,
      "Emergency": 8884,
      "Neisseria": 8885,
      "CF": 8886,
      "Lupus": 8887,
      "folate": 8888,
      "openia": 8889,
      "ampli": 8890,
      "hepatocytes": 8891,
      "morphine": 8892,
      "stopped": 8893,
      "Epider": 8894,
      "Mycobacterium": 8895,
      "phenylalanine": 8896,
      "dissociation": 8897,
      "Sudden": 8898,
      "Bru": 8899,
      "CK": 8900,
      "Cunning": 8901,
      "Ewing": 8902,
      "inopril": 8903,
      "contamination": 8904,
      "hypothesis": 8905,
      "butol": 8906,
      "stretch": 8907,
      "Ele": 8908,
      "Lum": 8909,
      "inase": 8910,
      "olgi": 8911,
      "phrenic": 8912,
      "iative": 8913,
      "Leuc": 8914,
      "glycine": 8915,
      "thoughts": 8916,
      "babies": 8917,
      "granulomas": 8918,
      "innervated": 8919,
      "lysine": 8920,
      "docum": 8921,
      ")(": 8922,
      "OPD": 8923,
      "bene": 8924,
      "cra": 8925,
      "antrum": 8926,
      "cturnal": 8927,
      "terolateral": 8928,
      "moem": 8929,
      "paratus": 8930,
      "akia": 8931,
      "join": 8932,
      "esophag": 8933,
      "itorum": 8934,
      "amuscular": 8935,
      "narrowing": 8936,
      "Administer": 8937,
      "Smoking": 8938,
      "Esophageal": 8939,
      "Cunningham": 8940,
      "Sleep": 8941,
      "readily": 8942,
      "Anal": 8943,
      "oppler": 8944,
      "absorb": 8945,
      "allowing": 8946,
      "Pneumonia": 8947,
      "thyroxine": 8948,
      "Singh": 8949,
      "irritability": 8950,
      "Tar": 8951,
      "Malaria": 8952,
      "Respon": 8953,
      "thylene": 8954,
      "Marked": 8955,
      "subjects": 8956,
      "agnetic": 8957,
      "Dip": 8958,
      "Duration": 8959,
      "IQ": 8960,
      "Tachy": 8961,
      "dust": 8962,
      "wasting": 8963,
      "totic": 8964,
      "ospl": 8965,
      "suicide": 8966,
      "endal": 8967,
      "ubility": 8968,
      "ileus": 8969,
      "IVC": 8970,
      "triple": 8971,
      "BCG": 8972,
      "knees": 8973,
      "HCG": 8974,
      "Bladder": 8975,
      "prompt": 8976,
      "Spontaneous": 8977,
      "Etiology": 8978,
      "named": 8979,
      "react": 8980,
      "Increases": 8981,
      "udendal": 8982,
      "muscul": 8983,
      "Progn": 8984,
      "severely": 8985,
      "Intermediate": 8986,
      "achieve": 8987,
      "daughter": 8988,
      "semide": 8989,
      "Dan": 8990,
      "PI": 8991,
      "ux": 8992,
      "untreated": 8993,
      "ocere": 8994,
      "prothrombin": 8995,
      "hydrocephalus": 8996,
      "RAY": 8997,
      "agenesis": 8998,
      "alopecia": 8999,
      "ruled": 9000,
      "'-": 9001,
      "HBe": 9002,
      "Ner": 9003,
      "Sam": 9004,
      "aqu": 9005,
      "trophic": 9006,
      "vus": 9007,
      "intel": 9008,
      "depressive": 9009,
      "agit": 9010,
      "ford": 9011,
      "disappears": 9012,
      "Indian": 9013,
      "ferment": 9014,
      "periphery": 9015,
      "Asthma": 9016,
      "eyelid": 9017,
      "initiation": 9018,
      "idespread": 9019,
      "adju": 9020,
      "CML": 9021,
      "rhinitis": 9022,
      "convulsions": 9023,
      "penetrating": 9024,
      "Bacillus": 9025,
      "quickly": 9026,
      "Fung": 9027,
      "PCO": 9028,
      "reno": 9029,
      "Index": 9030,
      "otonic": 9031,
      "Program": 9032,
      "myocardium": 9033,
      "measuring": 9034,
      "apez": 9035,
      "materials": 9036,
      "Virus": 9037,
      "FEV1": 9038,
      "scrotum": 9039,
      "+)": 9040,
      "DH": 9041,
      "ands": 9042,
      "ductive": 9043,
      "hypoplasia": 9044,
      "aze": 9045,
      "incid": 9046,
      "Prevention": 9047,
      "Like": 9048,
      "Manual": 9049,
      "Strep": 9050,
      "veebrae": 9051,
      "playing": 9052,
      "crystal": 9053,
      "propeies": 9054,
      "Follicular": 9055,
      "bundle": 9056,
      "Lapar": 9057,
      "Mis": 9058,
      "acral": 9059,
      "correl": 9060,
      "sized": 9061,
      "stair": 9062,
      "yet": 9063,
      "metaplasia": 9064,
      "susception": 9065,
      "analogue": 9066,
      "L4": 9067,
      "RV": 9068,
      "Soft": 9069,
      "pone": 9070,
      "acous": 9071,
      "oxime": 9072,
      "submandibular": 9073,
      "lymphomas": 9074,
      "omycosis": 9075,
      "hormonal": 9076,
      "hydramnios": 9077,
      "IUCD": 9078,
      "Hepato": 9079,
      "derivative": 9080,
      "Pho": 9081,
      "Tc": 9082,
      "ruc": 9083,
      "ulence": 9084,
      "ulates": 9085,
      "cement": 9086,
      "construction": 9087,
      "exception": 9088,
      "efferent": 9089,
      "viol": 9090,
      "tubal": 9091,
      "azone": 9092,
      "ushed": 9093,
      "cussion": 9094,
      "Thrombocytopenia": 9095,
      "pliteal": 9096,
      "Ds": 9097,
      "oflu": 9098,
      "kept": 9099,
      "tax": 9100,
      "Prostate": 9101,
      "myx": 9102,
      "lasting": 9103,
      "microbiology": 9104,
      "meningeal": 9105,
      "delusions": 9106,
      "carcinoid": 9107,
      "BRCA": 9108,
      "closporine": 9109,
      "Know": 9110,
      "Past": 9111,
      "lectomy": 9112,
      "lia": 9113,
      "solute": 9114,
      "aware": 9115,
      "ENTIAL": 9116,
      "resembling": 9117,
      "implantation": 9118,
      "encountered": 9119,
      "EF": 9120,
      "GH": 9121,
      "Pitu": 9122,
      "rabies": 9123,
      "motile": 9124,
      "angiect": 9125,
      "tryptophan": 9126,
      "odermal": 9127,
      "filaments": 9128,
      "vacu": 9129,
      "digitorum": 9130,
      "parenchyma": 9131,
      "alytic": 9132,
      "Aortic": 9133,
      "acoustic": 9134,
      "Barium": 9135,
      "Open": 9136,
      "lids": 9137,
      "eff": 9138,
      "endritic": 9139,
      "fouh": 9140,
      "inting": 9141,
      "requiring": 9142,
      "autopsy": 9143,
      "probability": 9144,
      "regulated": 9145,
      "tympani": 9146,
      "Giant": 9147,
      "Angio": 9148,
      "ocoicoids": 9149,
      "auricular": 9150,
      "agglutination": 9151,
      "Klebsiella": 9152,
      "jog": 9153,
      "amol": 9154,
      "Intrac": 9155,
      "cool": 9156,
      "link": 9157,
      "Coronary": 9158,
      "brainstem": 9159,
      "Heparin": 9160,
      "Incubation": 9161,
      "susceptibility": 9162,
      "colored": 9163,
      "pathogens": 9164,
      "odiazep": 9165,
      "(-": 9166,
      "Sus": 9167,
      "hilar": 9168,
      "acuity": 9169,
      "composition": 9170,
      "coefficient": 9171,
      "pretation": 9172,
      "vesicular": 9173,
      "mesang": 9174,
      "Hypertension": 9175,
      "Fibrin": 9176,
      "insertion": 9177,
      "LS": 9178,
      "toes": 9179,
      "phle": 9180,
      "deal": 9181,
      "apan": 9182,
      "Onset": 9183,
      "abscesses": 9184,
      "periosteal": 9185,
      "adjuvant": 9186,
      "VP": 9187,
      "inatal": 9188,
      "ampl": 9189,
      "apparatus": 9190,
      "discovered": 9191,
      "clar": 9192,
      "humeral": 9193,
      "Hemolytic": 9194,
      "Melan": 9195,
      "CYP": 9196,
      "cramps": 9197,
      "\")": 9198,
      "91": 9199,
      "apnea": 9200,
      "goal": 9201,
      "orrhagia": 9202,
      "Hypokalemia": 9203,
      "bullet": 9204,
      "situations": 9205,
      "Similar": 9206,
      "constitu": 9207,
      "Frontal": 9208,
      "dull": 9209,
      "reabsorbed": 9210,
      "idate": 9211,
      "abis": 9212,
      "comb": 9213,
      "versus": 9214,
      "ceptor": 9215,
      "Progesterone": 9216,
      "granulation": 9217,
      "Restric": 9218,
      "MAC": 9219,
      "crown": 9220,
      "Administration": 9221,
      "Pituitary": 9222,
      "Langer": 9223,
      "Tib": 9224,
      "okinase": 9225,
      "rax": 9226,
      "pons": 9227,
      "Previous": 9228,
      "chymal": 9229,
      "Phenytoin": 9230,
      "buffer": 9231,
      "apsone": 9232,
      "zygous": 9233,
      "DC": 9234,
      "Stomach": 9235,
      "harm": 9236,
      "edo": 9237,
      "supine": 9238,
      "urosemide": 9239,
      "pgno": 9240,
      "polymorph": 9241,
      "ARDS": 9242,
[...]
